{
  "version": "1.0",
  "truncation": null,
  "padding": null,
  "added_tokens": [
    {
      "id": 0,
      "content": "<pad>",
      "single_word": false,
      "lstrip": false,
      "rstrip": false,
      "normalized": false,
      "special": true
    },
    {
      "id": 1,
      "content": "<s>",
      "single_word": false,
      "lstrip": false,
      "rstrip": false,
      "normalized": false,
      "special": true
    },
    {
      "id": 2,
      "content": "</s>",
      "single_word": false,
      "lstrip": false,
      "rstrip": false,
      "normalized": false,
      "special": true
    },
    {
      "id": 3,
      "content": "<unk>",
      "single_word": false,
      "lstrip": false,
      "rstrip": false,
      "normalized": false,
      "special": true
    },
    {
      "id": 4,
      "content": "<think>",
      "single_word": false,
      "lstrip": false,
      "rstrip": false,
      "normalized": false,
      "special": true
    },
    {
      "id": 5,
      "content": "</think>",
      "single_word": false,
      "lstrip": false,
      "rstrip": false,
      "normalized": false,
      "special": true
    },
    {
      "id": 6,
      "content": "<tool_call>",
      "single_word": false,
      "lstrip": false,
      "rstrip": false,
      "normalized": false,
      "special": true
    }
  ],
  "normalizer": null,
  "pre_tokenizer": {
    "type": "ByteLevel",
    "add_prefix_space": false,
    "trim_offsets": true,
    "use_regex": true
  },
  "post_processor": {
    "type": "ByteLevel",
    "add_prefix_space": true,
    "trim_offsets": false,
    "use_regex": true
  },
  "decoder": {
    "type": "ByteLevel",
    "add_prefix_space": true,
    "trim_offsets": true,
    "use_regex": true
  },
  "model": {
    "type": "BPE",
    "dropout": null,
    "unk_token": null,
    "continuing_subword_prefix": null,
    "end_of_word_suffix": null,
    "fuse_unk": false,
    "byte_fallback": false,
    "ignore_merges": false,
    "vocab": {
      "<pad>": 0,
      "<s>": 1,
      "</s>": 2,
      "<unk>": 3,
      "<think>": 4,
      "</think>": 5,
      "<tool_call>": 6,
      "!": 7,
      "\"": 8,
      "#": 9,
      "$": 10,
      "%": 11,
      "&": 12,
      "'": 13,
      "(": 14,
      ")": 15,
      "*": 16,
      "+": 17,
      ",": 18,
      "-": 19,
      ".": 20,
      "/": 21,
      "0": 22,
      "1": 23,
      "2": 24,
      "3": 25,
      "4": 26,
      "5": 27,
      "6": 28,
      "7": 29,
      "8": 30,
      "9": 31,
      ":": 32,
      ";": 33,
      "<": 34,
      "=": 35,
      ">": 36,
      "?": 37,
      "@": 38,
      "A": 39,
      "B": 40,
      "C": 41,
      "D": 42,
      "E": 43,
      "F": 44,
      "G": 45,
      "H": 46,
      "I": 47,
      "J": 48,
      "K": 49,
      "L": 50,
      "M": 51,
      "N": 52,
      "O": 53,
      "P": 54,
      "Q": 55,
      "R": 56,
      "S": 57,
      "T": 58,
      "U": 59,
      "V": 60,
      "W": 61,
      "X": 62,
      "Y": 63,
      "Z": 64,
      "[": 65,
      "\\": 66,
      "]": 67,
      "^": 68,
      "_": 69,
      "`": 70,
      "a": 71,
      "b": 72,
      "c": 73,
      "d": 74,
      "e": 75,
      "f": 76,
      "g": 77,
      "h": 78,
      "i": 79,
      "j": 80,
      "k": 81,
      "l": 82,
      "m": 83,
      "n": 84,
      "o": 85,
      "p": 86,
      "q": 87,
      "r": 88,
      "s": 89,
      "t": 90,
      "u": 91,
      "v": 92,
      "w": 93,
      "x": 94,
      "y": 95,
      "z": 96,
      "{": 97,
      "|": 98,
      "}": 99,
      "~": 100,
      "¡": 101,
      "¢": 102,
      "£": 103,
      "¤": 104,
      "¥": 105,
      "¦": 106,
      "§": 107,
      "¨": 108,
      "©": 109,
      "ª": 110,
      "«": 111,
      "¬": 112,
      "®": 113,
      "¯": 114,
      "°": 115,
      "±": 116,
      "²": 117,
      "³": 118,
      "´": 119,
      "µ": 120,
      "¶": 121,
      "·": 122,
      "¸": 123,
      "¹": 124,
      "º": 125,
      "»": 126,
      "¼": 127,
      "½": 128,
      "¾": 129,
      "¿": 130,
      "À": 131,
      "Á": 132,
      "Â": 133,
      "Ã": 134,
      "Ä": 135,
      "Å": 136,
      "Æ": 137,
      "Ç": 138,
      "È": 139,
      "É": 140,
      "Ê": 141,
      "Ë": 142,
      "Ì": 143,
      "Í": 144,
      "Î": 145,
      "Ï": 146,
      "Ð": 147,
      "Ñ": 148,
      "Ò": 149,
      "Ó": 150,
      "Ô": 151,
      "Õ": 152,
      "Ö": 153,
      "×": 154,
      "Ø": 155,
      "Ù": 156,
      "Ú": 157,
      "Û": 158,
      "Ü": 159,
      "Ý": 160,
      "Þ": 161,
      "ß": 162,
      "à": 163,
      "á": 164,
      "â": 165,
      "ã": 166,
      "ä": 167,
      "å": 168,
      "æ": 169,
      "ç": 170,
      "è": 171,
      "é": 172,
      "ê": 173,
      "ë": 174,
      "ì": 175,
      "í": 176,
      "î": 177,
      "ï": 178,
      "ð": 179,
      "ñ": 180,
      "ò": 181,
      "ó": 182,
      "ô": 183,
      "õ": 184,
      "ö": 185,
      "÷": 186,
      "ø": 187,
      "ù": 188,
      "ú": 189,
      "û": 190,
      "ü": 191,
      "ý": 192,
      "þ": 193,
      "ÿ": 194,
      "Ā": 195,
      "ā": 196,
      "Ă": 197,
      "ă": 198,
      "Ą": 199,
      "ą": 200,
      "Ć": 201,
      "ć": 202,
      "Ĉ": 203,
      "ĉ": 204,
      "Ċ": 205,
      "ċ": 206,
      "Č": 207,
      "č": 208,
      "Ď": 209,
      "ď": 210,
      "Đ": 211,
      "đ": 212,
      "Ē": 213,
      "ē": 214,
      "Ĕ": 215,
      "ĕ": 216,
      "Ė": 217,
      "ė": 218,
      "Ę": 219,
      "ę": 220,
      "Ě": 221,
      "ě": 222,
      "Ĝ": 223,
      "ĝ": 224,
      "Ğ": 225,
      "ğ": 226,
      "Ġ": 227,
      "ġ": 228,
      "Ģ": 229,
      "ģ": 230,
      "Ĥ": 231,
      "ĥ": 232,
      "Ħ": 233,
      "ħ": 234,
      "Ĩ": 235,
      "ĩ": 236,
      "Ī": 237,
      "ī": 238,
      "Ĭ": 239,
      "ĭ": 240,
      "Į": 241,
      "į": 242,
      "İ": 243,
      "ı": 244,
      "Ĳ": 245,
      "ĳ": 246,
      "Ĵ": 247,
      "ĵ": 248,
      "Ķ": 249,
      "ķ": 250,
      "ĸ": 251,
      "Ĺ": 252,
      "ĺ": 253,
      "Ļ": 254,
      "ļ": 255,
      "Ľ": 256,
      "ľ": 257,
      "Ŀ": 258,
      "ŀ": 259,
      "Ł": 260,
      "ł": 261,
      "Ń": 262,
      "á»": 263,
      "áº": 264,
      "ng": 265,
      "Ġt": 266,
      "Ġc": 267,
      "ĠÄ": 268,
      "Ãł": 269,
      "ĠÄĳ": 270,
      "nh": 271,
      "Ġv": 272,
      "Æ°": 273,
      "Ġth": 274,
      "Ã¡": 275,
      "Ġl": 276,
      "Ġh": 277,
      "Æ°á»": 278,
      "Ġb": 279,
      "Ġtr": 280,
      "iá»": 281,
      "Ġch": 282,
      "Ġk": 283,
      "ĠT": 284,
      "á»Ļ": 285,
      "Ġm": 286,
      "Ġn": 287,
      "Ġs": 288,
      "áº¿": 289,
      "áº¡": 290,
      "Ġnh": 291,
      "Ãª": 292,
      "Ã´": 293,
      "áº£": 294,
      "ĠvÃł": 295,
      "á»§": 296,
      "Ġg": 297,
      "Ġd": 298,
      "Ã³": 299,
      "ph": 300,
      "Ã¢": 301,
      "á»ĳ": 302,
      "Ġng": 303,
      "Ġph": 304,
      "Ġkh": 305,
      "ĠC": 306,
      "Ãªn": 307,
      "Ã¡c": 308,
      "ĠN": 309,
      "an": 310,
      "áº¥": 311,
      "áºŃ": 312,
      "iá»ĩ": 313,
      "Ġcá»§": 314,
      "Ġcá»§a": 315,
      "Ġ1": 316,
      "Äĥ": 317,
      "ĠlÃł": 318,
      "Ã´ng": 319,
      "Æ°á»£": 320,
      "á»ĭ": 321,
      "qu": 322,
      "Æ¡": 323,
      "ĠH": 324,
      "Ġqu": 325,
      "ÃŃ": 326,
      "áº§": 327,
      "iáº¿": 328,
      "Ġvá»": 329,
      "ĠS": 330,
      "ĠB": 331,
      "Ã¢n": 332,
      "Ġtá»": 333,
      "ong": 334,
      "ĠM": 335,
      "ĠL": 336,
      "Æ°á»£c": 337,
      "Æ°á»Ŀ": 338,
      "á»Ļt": 339,
      "áº¡i": 340,
      "ĠTh": 341,
      "Ġ(": 342,
      "ĠÄĳÆ°á»£c": 343,
      "Äĥm": 344,
      "uy": 345,
      "Ã¬": 346,
      "Ġgi": 347,
      "Ã£": 348,
      "ch": 349,
      "Ľi": 350,
      "Ġthá»": 351,
      "Ġmá»Ļt": 352,
      "er": 353,
      "ĠÄĲ": 354,
      "ĠcÃ¡c": 355,
      "am": 356,
      "Ġ2": 357,
      "ĠP": 358,
      "on": 359,
      "á»Ł": 360,
      "iÃªn": 361,
      "ĠÄĳá»": 362,
      "ĠnÄĥm": 363,
      "Ġr": 364,
      "Ġhá»": 365,
      "Ġx": 366,
      "áº¥t": 367,
      "ĠcÃ³": 368,
      "ĠV": 369,
      "ĠA": 370,
      "Ġtrong": 371,
      "Ãłnh": 372,
      "Ãły": 373,
      "á»±": 374,
      "in": 375,
      "ar": 376,
      "ĠK": 377,
      "Ãº": 378,
      "oÃł": 379,
      "áº¯": 380,
      "en": 381,
      "Ã¬nh": 382,
      "ĠTr": 383,
      "ai": 384,
      "Æ°á»Ŀi": 385,
      "á»¥": 386,
      "á»¯": 387,
      "inh": 388,
      "Ġ19": 389,
      "ĠD": 390,
      "á»©": 391,
      "Æ°Æ¡": 392,
      "Ã¡ng": 393,
      "Æ°Æ¡ng": 394,
      "Ã¹": 395,
      "Ã²": 396,
      "ĠÄĳÃ£": 397,
      "áº§u": 398,
      "ĠCh": 399,
      "ĠG": 400,
      "al": 401,
      "Ġvá»Ľi": 402,
      "Ġ20": 403,
      "or": 404,
      "iá»ģ": 405,
      "ĠngÆ°á»Ŀi": 406,
      "ay": 407,
      "áº§n": 408,
      "Æ°á»Ľ": 409,
      "iá»ĩn": 410,
      "áº·": 411,
      "Ġcho": 412,
      "iá»ĥ": 413,
      "au": 414,
      "ĠÄĳá»Ļ": 415,
      "Ġá»Ł": 416,
      "áºŃt": 417,
      "es": 418,
      "á»ĳc": 419,
      "ung": 420,
      "anh": 421,
      "uyá»": 422,
      "ang": 423,
      "ĠPh": 424,
      "ÃŃnh": 425,
      "áºŃn": 426,
      "Ġhá»į": 427,
      "áº£n": 428,
      "áº£i": 429,
      "ĠvÃło": 430,
      "ao": 431,
      "áº¿n": 432,
      "Æ°á»Ŀng": 433,
      "ĠthÃ¡ng": 434,
      "iáº¿n": 435,
      "at": 436,
      "Ġsá»ĳ": 437,
      "ĠNg": 438,
      "áº¿t": 439,
      "á»ķ": 440,
      "Ġtá»«": 441,
      "iá»ģu": 442,
      "á»ĵ": 443,
      "is": 444,
      "Æ°á»Ľc": 445,
      "Ã¢y": 446,
      "Ġngh": 447,
      "ia": 448,
      "ĠthÃłnh": 449,
      "á»Ń": 450,
      "ĠQ": 451,
      "Ã¡t": 452,
      "áºŃp": 453,
      "á»į": 454,
      "el": 455,
      "ĠNh": 456,
      "á»Ļc": 457,
      "ĠnÃły": 458,
      "ĠR": 459,
      "Ã¹ng": 460,
      "ĠnhÆ°": 461,
      "á»¯ng": 462,
      "ĠQu": 463,
      "im": 464,
      "á»ĳi": 465,
      "ĠkhÃ´ng": 466,
      "áº±": 467,
      "áº£o": 468,
      "Å©": 469,
      "Ġgiá»": 470,
      "Ġlá»": 471,
      "ĠÄĳáº¿n": 472,
      "Ŀi": 473,
      "Ġthu": 474,
      "Ġtáº¡i": 475,
      "ĠÄĳÃ³": 476,
      "iá»ĩt": 477,
      "Ä©": 478,
      "Ġkhi": 479,
      "Ġnhá»¯ng": 480,
      "ĠÄĳáº§u": 481,
      "oÃłi": 482,
      "Ġ\"": 483,
      "ic": 484,
      "á»©c": 485,
      "ol": 486,
      "as": 487,
      "us": 488,
      "it": 489,
      "Ġthá»ĥ": 490,
      "ĠÃ": 491,
      "Ã¡i": 492,
      "ĠI": 493,
      "ĠngÃły": 494,
      "eo": 495,
      "á»Ļi": 496,
      "Æ¡n": 497,
      "Ġra": 498,
      "il": 499,
      "Ġho": 500,
      "Ãłi": 501,
      "Ã¡o": 502,
      "ĠcÃ´ng": 503,
      "00": 504,
      "ĠÄĳá»ĭ": 505,
      "ĠF": 506,
      "ÃŃch": 507,
      "Ġvá»ģ": 508,
      "âĢ": 509,
      "ģn": 510,
      "ĠchÃŃnh": 511,
      "Ġhá»įc": 512,
      "ĠÄĳá»ĥ": 513,
      "Ġsá»±": 514,
      "áº±ng": 515,
      "Ã©": 516,
      "iáº¿t": 517,
      "Ã¡p": 518,
      "ĠtrÃªn": 519,
      "Ġbá»ĭ": 520,
      "á»ĳng": 521,
      "áº£ng": 522,
      "áº·c": 523,
      "á»¥c": 524,
      "Ġthá»©": 525,
      "Ġ3": 526,
      "Ã¡n": 527,
      "ur": 528,
      "á»ī": 529,
      "oÃłn": 530,
      "Ã¢u": 531,
      "Ġgia": 532,
      "ĠÄĳÃ¡": 533,
      "ĠE": 534,
      "Ġ|": 535,
      "ĠW": 536,
      "Äĥng": 537,
      "em": 538,
      "ĠNam": 539,
      "et": 540,
      "ĠJ": 541,
      "om": 542,
      "ĠquÃ¢n": 543,
      "Ġ201": 544,
      "á»±c": 545,
      "ĠnhÃł": 546,
      "Å©ng": 547,
      "ĠÃ´ng": 548,
      "Ġsau": 549,
      "áº¯c": 550,
      "Ġtiáº¿": 551,
      "Ã½": 552,
      "iá»ĩu": 553,
      "Ã³ng": 554,
      "ĠKh": 555,
      "Ġcu": 556,
      "ĠÄĳá»Ļng": 557,
      "±c": 558,
      "á»ĭch": 559,
      "id": 560,
      "os": 561,
      "ħn": 562,
      "ĠX": 563,
      "áº¡o": 564,
      "Ġsá»Ń": 565,
      "Ġláº¡i": 566,
      "iÃª": 567,
      "áº¡t": 568,
      "Ġkáº¿t": 569,
      "Ġnháº¥t": 570,
      "Ã¢m": 571,
      "áº©": 572,
      "Ġ-": 573,
      "Ġxu": 574,
      "Ġhiá»ĩn": 575,
      "Ġ200": 576,
      "Æ°á»£ng": 577,
      "Äĥn": 578,
      "Ġká»": 579,
      "ĠlÃłm": 580,
      "ĠváºŃt": 581,
      "oa": 582,
      "ĠkhÃ¡c": 583,
      "ĠcÅ©ng": 584,
      "Ãło": 585,
      "ĠdÃ¢n": 586,
      "),": 587,
      "áº¡n": 588,
      "áº¡c": 589,
      "á»ı": 590,
      "ĠhÃłnh": 591,
      "Ġcáº£": 592,
      "âĢĵ": 593,
      "and": 594,
      "ĠphÃ¡t": 595,
      "Ãłng": 596,
      "áº¥n": 597,
      "Ã´i": 598,
      "uyÃªn": 599,
      "ĠÄĳá»ĵ": 600,
      "Ã²n": 601,
      "ĠnÃ³": 602,
      "Ġquy": 603,
      "ed": 604,
      "Ġbá»Ļ": 605,
      "Ã´n": 606,
      "uyá»ĩ": 607,
      "iá»ĩc": 608,
      "Ã²ng": 609,
      "iá»ĥn": 610,
      "iá»ĥu": 611,
      "Æ°á»Ł": 612,
      "Ġquá»ĳc": 613,
      "áº¯t": 614,
      "Ġdo": 615,
      "Æ°á»Łng": 616,
      "áº«": 617,
      "ĠviÃªn": 618,
      "ĠGi": 619,
      "um": 620,
      "Ġthá»Ŀi": 621,
      "Ġdá»¥": 622,
      "ĥn": 623,
      "Ãºc": 624,
      "ĠnÆ°á»Ľc": 625,
      "Æ¡i": 626,
      "á»ĩ": 627,
      "Ġthá»§": 628,
      "ad": 629,
      "á»Ļng": 630,
      "áº¥p": 631,
      "le": 632,
      "ĠO": 633,
      "Ġ4": 634,
      "ĠQuá»ĳc": 635,
      "áº¡ng": 636,
      "ro": 637,
      "Ġnhiá»ģu": 638,
      "áº¥u": 639,
      "Ġtheo": 640,
      "oáº¡i": 641,
      "ĠnhÃ¢n": 642,
      "Ġhai": 643,
      "ĠmÃł": 644,
      "ĠU": 645,
      "ac": 646,
      ").": 647,
      "Ġtháº¿": 648,
      "Ġkháº£o": 649,
      "ĠhÃ¬nh": 650,
      "Ġquan": 651,
      "Ġviá»ĩc": 652,
      "Ġchá»ī": 653,
      "Ġcon": 654,
      "áº¥y": 655,
      "Ġ5": 656,
      "Ġxuáº¥t": 657,
      "uyá»ĩn": 658,
      "ĠViá»ĩt": 659,
      "áº·t": 660,
      "Ġmá»": 661,
      "th": 662,
      "Ġ18": 663,
      "ĠTham": 664,
      "un": 665,
      "ĠTrung": 666,
      "iá»ħn": 667,
      "á»Łi": 668,
      "ĠcÃ¹ng": 669,
      "Ġchiáº¿n": 670,
      "Ġdá»¥ng": 671,
      "Ã¡ch": 672,
      "ag": 673,
      "ing": 674,
      "ĠcÃ²n": 675,
      "ĠLiÃªn": 676,
      "iá»ĩp": 677,
      "Ã¡nh": 678,
      "iá»ĥm": 679,
      "Ġbáº£n": 680,
      "ĠÄĳá»ĭnh": 681,
      "Ãºng": 682,
      "ion": 683,
      "ĠÄĳá»ĵng": 684,
      "Ġlá»Ľ": 685,
      "áº½": 686,
      "ĠhÆ¡n": 687,
      "Ġsinh": 688,
      "á»ķi": 689,
      "Ġvá»ĭ": 690,
      "re": 691,
      "Ġo": 692,
      "ig": 693,
      "£p": 694,
      "Ġthá»ĭ": 695,
      "ĠngoÃłi": 696,
      "Ġthuá»Ļc": 697,
      "ĠbÃ³ng": 698,
      "19": 699,
      "ĠÄĳá»ģ": 700,
      "ĠY": 701,
      "Ġ6": 702,
      "ter": 703,
      "Ġtá»ķ": 704,
      "ĠcÃ¡ch": 705,
      "áº«n": 706,
      "ÃŃa": 707,
      "Ãłn": 708,
      "Ġ199": 709,
      "Ġdá»±": 710,
      "á»«": 711,
      "Ġtá»±": 712,
      "ĠCÃ¡c": 713,
      "iá»ģn": 714,
      "ĠÄĳá»Ļi": 715,
      "ot": 716,
      "á»ģn": 717,
      "ĠAnh": 718,
      "Ġchá»§": 719,
      "Ġgiá»Ľi": 720,
      "Ġhá»Ļi": 721,
      "Ġkhu": 722,
      "Ġcuá»Ļc": 723,
      "Ġgiáº£i": 724,
      "Ġthá»±c": 725,
      "ra": 726,
      "á»įi": 727,
      "ĠtÃªn": 728,
      "Ġhá»£p": 729,
      "ĠláºŃp": 730,
      "uyá»ģn": 731,
      "Ġy": 732,
      "Ġbá»Łi": 733,
      "ĠtiÃªn": 734,
      "hi": 735,
      "Ġtrá»Ł": 736,
      "Ã³a": 737,
      "á»¹": 738,
      "Ġpháº§n": 739,
      "Ġráº±ng": 740,
      "ĠtrÃ¬nh": 741,
      "ĠÄĳáº¡i": 742,
      "Ġ7": 743,
      "Ġchá»©c": 744,
      "iá»ĩm": 745,
      "iÃªu": 746,
      "ĠnháºŃn": 747,
      "ĠnhÆ°ng": 748,
      "Ġdiá»ħn": 749,
      "ul": 750,
      "Ġbáº±ng": 751,
      "Ġgiá»¯": 752,
      "ĠtrÆ°á»Ľc": 753,
      "Ġsáº£n": 754,
      "ĠlÃ½": 755,
      "Ġlá»Ľn": 756,
      "ĠtrÆ°á»Ŀng": 757,
      "uyá»ĥn": 758,
      "ĠloÃłi": 759,
      "Æ°a": 760,
      "Ġcao": 761,
      "Ä©a": 762,
      "á»©ng": 763,
      "Æ°á»Ľng": 764,
      "Ġtáº¿": 765,
      "Ġtiáº¿p": 766,
      "īnh": 767,
      "Ġ8": 768,
      "Ġhoáº·c": 769,
      "á»ĵm": 770,
      "ak": 771,
      "ĠcÆ¡": 772,
      "Ġpháº£i": 773,
      "Ġof": 774,
      "Ġkho": 775,
      "Ã²a": 776,
      "Ġphim": 777,
      "ĠxÃ£": 778,
      "ĠlÆ°á»£ng": 779,
      "Ġgá»ĵm": 780,
      "Ã¡y": 781,
      "Ġ9": 782,
      "ĠÄĳiá»ģu": 783,
      "Ġqua": 784,
      "Ġsáº½": 785,
      "Ġloáº¡i": 786,
      "ĠphÃŃa": 787,
      "ĠthÆ°á»Ŀng": 788,
      "Ġthá»ĳng": 789,
      "ĠAn": 790,
      "ĠTrong": 791,
      "Ġ10": 792,
      "Ġtiáº¿ng": 793,
      "á»ĵng": 794,
      "Ġchiáº¿": 795,
      "Ġtu": 796,
      "ir": 797,
      "20": 798,
      "Ãłu": 799,
      "Ġphá»ĳ": 800,
      "ĠthÃ´ng": 801,
      "Ġvá»¥": 802,
      "ĠÄĲáº¡i": 803,
      "ĠsÄ©": 804,
      "ĠHoa": 805,
      "á»ĳn": 806,
      "ĠNÄĥm": 807,
      "op": 808,
      "Ġp": 809,
      "od": 810,
      "ĠtÃ¡c": 811,
      "áºŃu": 812,
      "Ġsá»ĳng": 813,
      "ĠtÃŃnh": 814,
      "ĠhÃłng": 815,
      "ua": 816,
      "oÃłng": 817,
      "ĠlÃªn": 818,
      "ĠMá»¹": 819,
      "ov": 820,
      "áº£nh": 821,
      "ĠÄĳá»ĳi": 822,
      "áº¯ng": 823,
      "Ġtá»īnh": 824,
      "á»³": 825,
      "Æ°u": 826,
      "ĠÄĳiá»ĥm": 827,
      "Ãªm": 828,
      "ĠâĢĵ": 829,
      "Ġlu": 830,
      "ĠÄĳi": 831,
      "Ġtrá»ĭ": 832,
      "ent": 833,
      "Ġtáº¡o": 834,
      "Ġgá»įi": 835,
      "áº»": 836,
      "Ġtrung": 837,
      "áº©m": 838,
      "ĠSt": 839,
      "ri": 840,
      "Ġbáº¯t": 841,
      "Ġnghiá»ĩp": 842,
      "ĠmÃ¬nh": 843,
      "ec": 844,
      "ĠvÃ¬": 845,
      "Ġbao": 846,
      "Ġhá»ĩ": 847,
      "ĠthÃŃch": 848,
      "Ġlá»±c": 849,
      "Ġanh": 850,
      "ĠÄĳáº¥u": 851,
      "Ġcáº¥p": 852,
      "Ġquyá»ģn": 853,
      "ĠgiÃ¡o": 854,
      "Ġ||": 855,
      "ĠÄĳoÃłn": 856,
      "Ġná»¯": 857,
      "ab": 858,
      "ĠnhiÃªn": 859,
      "Ġláº§n": 860,
      "á»£": 861,
      "ĠÄĳá»ĭa": 862,
      "Ġthá»©c": 863,
      "ĠÄĳÆ°á»Ŀng": 864,
      "Ġbay": 865,
      "Ġnháº¡c": 866,
      "ĠtÃŃch": 867,
      "ĠÄĳá»ķ": 868,
      "ou": 869,
      "Ġ12": 870,
      "ĠÄĳÃ¡nh": 871,
      "ĠhÃ³a": 872,
      "ae": 873,
      "st": 874,
      "Ġcáº§u": 875,
      "Ã¡m": 876,
      "ĠKá»³": 877,
      "ĠtáºŃp": 878,
      "áº¿u": 879,
      "Ġtruyá»ģn": 880,
      "áº¡ch": 881,
      "Ġtranh": 882,
      "áº¯n": 883,
      "áº¡m": 884,
      "Æ°á»Ľi": 885,
      "Ġmá»Ľi": 886,
      "ap": 887,
      "ĠcÃ´": 888,
      "ĠTÃ¢y": 889,
      "ĠtráºŃn": 890,
      "av": 891,
      "ĠSau": 892,
      "Ġvá»±c": 893,
      "áº¡nh": 894,
      "ow": 895,
      "Ġtham": 896,
      "ĠtÃłu": 897,
      "ĠliÃªn": 898,
      "áº±m": 899,
      "ĠvÃ¹ng": 900,
      "ĠÄĲá»©c": 901,
      "oc": 902,
      "ist": 903,
      "Ġcá»©": 904,
      "Ġ198": 905,
      "ĠchÃºng": 906,
      "ĠmÃ¡y": 907,
      "iv": 908,
      "Ã¹a": 909,
      "Ġhiá»ĩu": 910,
      "..": 911,
      "ie": 912,
      "á»ĳt": 913,
      "ĠphÃ¢n": 914,
      "ĠAl": 915,
      "ĠvÄĥn": 916,
      "Ġnam": 917,
      "áº¹": 918,
      "Ġchuyá»ĥn": 919,
      "Ġáº£nh": 920,
      "ĠnÄĥng": 921,
      "ĠCÃ´ng": 922,
      "Ġ11": 923,
      "Ġvai": 924,
      "Ġhay": 925,
      "Ġkhoáº£ng": 926,
      "ell": 927,
      "Ġf": 928,
      "ĠtoÃłn": 929,
      "ĠsÃ¡ch": 930,
      "Ġtá»Ń": 931,
      "ĠphÃ¡p": 932,
      "ill": 933,
      "ĠthÃ¬": 934,
      "ĠPhÃ¡p": 935,
      "ĠÄĳáº¡o": 936,
      "Ġgian": 937,
      "ard": 938,
      "Ġthe": 939,
      "Ġban": 940,
      "Ã¨": 941,
      "Ġhoáº¡t": 942,
      "Ã³m": 943,
      "Ġdiá»ĩn": 944,
      "Ġgiáº£": 945,
      "ĠthuáºŃt": 946,
      "Ġmáº·t": 947,
      "Ġcá»Ń": 948,
      "ĠmÃ´": 949,
      "áº§m": 950,
      "ĠnÃªn": 951,
      "ĠtrÃŃ": 952,
      "ĠthÃªm": 953,
      "Ġtriá»ĥn": 954,
      "á»Ĺ": 955,
      "ĠMar": 956,
      "ĠphÆ°Æ¡ng": 957,
      "ĠnghÄ©a": 958,
      "og": 959,
      "Ġtháº¥y": 960,
      "ut": 961,
      "ĠÄĳiá»ĩn": 962,
      "ĠchÆ¡i": 963,
      "ĠBáº¯c": 964,
      "ĠÄĳÆ¡n": 965,
      "Ġlá»ĩ": 966,
      "ers": 967,
      "Ġtá»Ľi": 968,
      "ĠÄĳo": 969,
      "Ġráº¥t": 970,
      "Ġgiá»¯a": 971,
      "ĠÃĶ": 972,
      "ĠThÃłnh": 973,
      "ĠMá»Ļt": 974,
      "ĠCáº§u": 975,
      "ĠNháºŃt": 976,
      "Ġnhau": 977,
      "ĠÄĳáº·c": 978,
      "ĠLe": 979,
      "Ġ197": 980,
      "ĠÄĳÃ¢y": 981,
      "Æ°ng": 982,
      "ob": 983,
      "ĠÄĲÃ´ng": 984,
      "ĠChÃº": 985,
      "ĠThe": 986,
      "ĠIn": 987,
      "Ġkinh": 988,
      "ok": 989,
      "Ġdanh": 990,
      "Ġtáº£": 991,
      "Ġbiá»ĩt": 992,
      "ĠÄĳá»ķi": 993,
      "Ġká»³": 994,
      "Ġcháº¿": 995,
      "ĠTá»ķ": 996,
      "á»Ŀ": 997,
      "ĠtÃ¢m": 998,
      "á»įng": 999,
      "Ġba": 1000,
      "á»įc": 1001,
      "Ġthiáº¿t": 1002,
      "ine": 1003,
      "ĠtrÆ°á»Łng": 1004,
      "á»Ŀi": 1005,
      "Ġdá»ĭch": 1006,
      "Ġ194": 1007,
      "Ġpháº©m": 1008,
      "ĠNe": 1009,
      "ĠÄĳang": 1010,
      "ĠLan": 1011,
      "uyáº¿n": 1012,
      "ĠThÃ¡i": 1013,
      "á»ĵi": 1014,
      "Ġcháº¥t": 1015,
      "Ġcuá»ĳi": 1016,
      "Ġphá»§": 1017,
      "ip": 1018,
      "ĠÃĶng": 1019,
      "Ġhuyá»ĩn": 1020,
      "ĠÄĳáº¥t": 1021,
      "Ġin": 1022,
      "Ġtin": 1023,
      "ĠBá»Ļ": 1024,
      "uyáº¿t": 1025,
      "ĠdÆ°á»Ľi": 1026,
      "ĠdÃłi": 1027,
      "Ġso": 1028,
      "ĠchÃ¢u": 1029,
      "Ġkáº¿": 1030,
      "Ġnhiá»ĩm": 1031,
      "ĠÃ¢m": 1032,
      "ĠHÃł": 1033,
      "Ãºt": 1034,
      "all": 1035,
      "Ã©p": 1036,
      "ian": 1037,
      "á»ĵn": 1038,
      "Ġmá»¥c": 1039,
      "ĠbÃ¡o": 1040,
      "Ġthay": 1041,
      "ub": 1042,
      "ĠnÆ¡i": 1043,
      "ĠnÃ³i": 1044,
      "Ġká»·": 1045,
      "\".": 1046,
      "Ġbáº£o": 1047,
      "ik": 1048,
      "ĠnguyÃªn": 1049,
      "ĠBáº£n": 1050,
      "Ġtá»¥": 1051,
      "Ġthi": 1052,
      "Ġbiáº¿n": 1053,
      "iáº¿u": 1054,
      "ĠbÃ¬nh": 1055,
      "Ġcá»©u": 1056,
      "ĠtÃ¬nh": 1057,
      "Ã¬m": 1058,
      "ĠtÄĥng": 1059,
      "ĠVÃło": 1060,
      "Ġbiáº¿t": 1061,
      "tr": 1062,
      "Ġ17": 1063,
      "ation": 1064,
      "000": 1065,
      "Ãµ": 1066,
      "ĠÃ½": 1067,
      "ĠVÄĥn": 1068,
      "ĠtÆ°": 1069,
      "Ġ196": 1070,
      "áº©n": 1071,
      "ĠphÃ²ng": 1072,
      "ĠgiÃ¡": 1073,
      "ĠbÃłi": 1074,
      "ich": 1075,
      "Ġtinh": 1076,
      "ĠÄĳáº£o": 1077,
      "ne": 1078,
      "Ġkhoa": 1079,
      "Ãªu": 1080,
      "ĠháºŃu": 1081,
      "Ġbiá»ĥn": 1082,
      "ĠhÃ¡t": 1083,
      "á»įn": 1084,
      "Ġtrang": 1085,
      "ĠAr": 1086,
      "ce": 1087,
      "ĠNgÆ°á»Ŀi": 1088,
      "ĠsÃ¡ng": 1089,
      "uyá»ħn": 1090,
      "Ġbá»ĳ": 1091,
      "ĠÄĳÃ´": 1092,
      "Ġá»": 1093,
      "ĠtiÃªu": 1094,
      "ev": 1095,
      "Ġtrá»įng": 1096,
      "ĠNÃ³": 1097,
      "ĠZ": 1098,
      "Ġváº«n": 1099,
      "ĠNgÃły": 1100,
      "ĠNhÃł": 1101,
      "eb": 1102,
      "ĠtÃłi": 1103,
      "Ġquáº£": 1104,
      "ĠsÃ¡t": 1105,
      "ĠÄĳáº·t": 1106,
      "Ġbiá»ĥu": 1107,
      "Ġchu": 1108,
      "ĠchÆ°Æ¡ng": 1109,
      "Ġbu": 1110,
      "ant": 1111,
      "Ġta": 1112,
      "ĠnhÃ³m": 1113,
      "Ġtá»ķng": 1114,
      "Ġdáº«n": 1115,
      "ĠSh": 1116,
      "Ġnáº±m": 1117,
      "ĠtÆ°Æ¡ng": 1118,
      "Ġtiáº¿n": 1119,
      "Ġand": 1120,
      "ĠcÃ¡": 1121,
      "Ġlá»ĭch": 1122,
      "ĠtÆ°á»Ľng": 1123,
      "ĠNhÃ¢n": 1124,
      "Ġgáº§n": 1125,
      "Ġliá»ĩu": 1126,
      "ĠdÃ¹ng": 1127,
      "Ġháº¡ng": 1128,
      "Ã©t": 1129,
      "ina": 1130,
      "ĠvÃ´": 1131,
      "áº£y": 1132,
      "ĠBr": 1133,
      "ĠHáº£i": 1134,
      "ĠHoÃłng": 1135,
      "Ġnhá»ı": 1136,
      "á»ĩnh": 1137,
      "ĠhÃ²a": 1138,
      "Ġmang": 1139,
      "Ãºp": 1140,
      "Ġ15": 1141,
      "if": 1142,
      "ĠÃģ": 1143,
      "Ġal": 1144,
      "ĠNguyá»ħn": 1145,
      "est": 1146,
      "Ġná»ķi": 1147,
      "Ġca": 1148,
      "ĠÄĳá»ģu": 1149,
      "Ġgiao": 1150,
      "Ġphong": 1151,
      "ĠbÃªn": 1152,
      "Ġto": 1153,
      "ĠDÆ°Æ¡ng": 1154,
      "á»§y": 1155,
      "Ġphá»¥c": 1156,
      "Ġáº": 1157,
      "Ġviáº¿t": 1158,
      "ĠÄĳá»Ŀi": 1159,
      "Ä©nh": 1160,
      "Ġsá»Ł": 1161,
      "ĠlÃ£": 1162,
      "Ġhá»ĵ": 1163,
      "áº³": 1164,
      "Ġkm": 1165,
      "Ġvá»ĩ": 1166,
      "Ġw": 1167,
      "áº¡p": 1168,
      "ĠtÃ¬m": 1169,
      "ĠbÃł": 1170,
      "Ġtuá»ķi": 1171,
      "Ġá»©ng": 1172,
      "ĠthÆ°Æ¡ng": 1173,
      "Ġphá»¥": 1174,
      "Ġ&": 1175,
      "Ġnghá»ĩ": 1176,
      "ens": 1177,
      "ĠmÃłu": 1178,
      "ĠÄĥn": 1179,
      "Ġcá»ķ": 1180,
      "ĠÃĤ": 1181,
      "Ġtháº¯ng": 1182,
      "ĠBan": 1183,
      "ĠBÃ¬nh": 1184,
      "ĠthÃ¢n": 1185,
      "ĠÄĳÆ°a": 1186,
      "ĠVÆ°Æ¡ng": 1187,
      "ĠÄĳÃ¬nh": 1188,
      "ĠmÃ¹a": 1189,
      "Ġtá»¥c": 1190,
      "aw": 1191,
      "ud": 1192,
      "ĠMinh": 1193,
      "áºŃy": 1194,
      "te": 1195,
      "Ġtiá»ĥu": 1196,
      "ĠnháºŃp": 1197,
      "ĠváºŃn": 1198,
      "Ġnay": 1199,
      "ry": 1200,
      "Ġ195": 1201,
      "Ġviá»ĩn": 1202,
      "ĠÄĳÃ´ng": 1203,
      "á»«ng": 1204,
      "ah": 1205,
      "ĳng": 1206,
      "á»ģ": 1207,
      "Ġbá»ı": 1208,
      "ĠGiáº£i": 1209,
      "Ġdá»±ng": 1210,
      "ber": 1211,
      "Ġchiáº¿c": 1212,
      "Ġláº¡c": 1213,
      "Ġ0": 1214,
      "ĠTuy": 1215,
      "ĠCá»Ļng": 1216,
      "io": 1217,
      "áº³ng": 1218,
      "ĠbÃ¡n": 1219,
      "Ġ16": 1220,
      "Ġrá»Ļng": 1221,
      "ĠNgh": 1222,
      "Ġquyáº¿t": 1223,
      "Ġtháº§n": 1224,
      "Ġyáº¿u": 1225,
      "Ġchi": 1226,
      "Ġtáº¥n": 1227,
      "ĠTá»ķng": 1228,
      "18": 1229,
      "ess": 1230,
      "Ġbáº¥t": 1231,
      "Ġtá»«ng": 1232,
      "ĠcÃ¢u": 1233,
      "ran": 1234,
      "ĠkhÃŃ": 1235,
      "Ġbinh": 1236,
      "ton": 1237,
      "uá»ĵn": 1238,
      "ĠquÃ¡": 1239,
      "ĠsÃ´ng": 1240,
      "200": 1241,
      "Ġhá»Ļ": 1242,
      "ĠtrÃ²": 1243,
      "ĠÄĳÃ³ng": 1244,
      "Ġngá»¯": 1245,
      "oh": 1246,
      "ĠhoÃłn": 1247,
      "ey": 1248,
      "Ġdi": 1249,
      "áº·ng": 1250,
      "Ġlo": 1251,
      "Ġcung": 1252,
      "ĠxÃ¢y": 1253,
      "ĠÃ¡n": 1254,
      "ta": 1255,
      "ĠNew": 1256,
      "ue": 1257,
      "á»Ľ": 1258,
      "up": 1259,
      "ĠnÃło": 1260,
      "ĠQuÃ¢n": 1261,
      "Ġkhá»ı": 1262,
      "Ġtiá»ģn": 1263,
      "iÃªm": 1264,
      "Ġcáº£nh": 1265,
      "oi": 1266,
      "áº·p": 1267,
      "ĠBa": 1268,
      "Ġbáº¯c": 1269,
      "áº¿p": 1270,
      "Ġbang": 1271,
      "ĠdÃ¹": 1272,
      "\",": 1273,
      "ĠxÃ¡c": 1274,
      "á»Ńa": 1275,
      "ĠhoÃłng": 1276,
      "Ġde": 1277,
      "Ĺi": 1278,
      "ĠÄĳá»ĭch": 1279,
      "Ġmá»Ł": 1280,
      "ĠthÆ°": 1281,
      "sk": 1282,
      "ĠChÃŃnh": 1283,
      "Ġtrá»£": 1284,
      "Ġgiá»ĳng": 1285,
      "Ġchung": 1286,
      "ĠNga": 1287,
      "man": 1288,
      "ĠÄĳá»©": 1289,
      "ĠvÆ°Æ¡ng": 1290,
      "Ġvua": 1291,
      "Ġghi": 1292,
      "Ġty": 1293,
      "Ġ14": 1294,
      "ĠsÃ¢n": 1295,
      "ĠTá»«": 1296,
      "Ġchá»ĳng": 1297,
      "ĠtÆ°á»£ng": 1298,
      "áº¡y": 1299,
      "áº¥m": 1300,
      "Ġminh": 1301,
      "ĠchÃº": 1302,
      "10": 1303,
      "Ġtá»Ļc": 1304,
      "Ġsu": 1305,
      "ĠchÃŃ": 1306,
      "ord": 1307,
      "ĠTheo": 1308,
      "uk": 1309,
      "Ġ193": 1310,
      "ĠcÃ¡i": 1311,
      "Æ°á»£t": 1312,
      "ĠNhá»¯ng": 1313,
      "ĠUn": 1314,
      "Ġxe": 1315,
      "ĠChÃ¢u": 1316,
      "Ġkiá»ĩn": 1317,
      "Ġcá»Ļng": 1318,
      "ĠÄĲá»ĭ": 1319,
      "ĠPr": 1320,
      "Ġ13": 1321,
      "ĠChiáº¿n": 1322,
      "Ġsáº¯c": 1323,
      "ĠyÃªu": 1324,
      "ĠkÃ½": 1325,
      "uc": 1326,
      "ĠSÆ¡n": 1327,
      "bum": 1328,
      "ĠCon": 1329,
      "Ġquáº£n": 1330,
      "ĠvÃ²ng": 1331,
      "Ġcháº¿t": 1332,
      "¯u": 1333,
      "Ġdáº¡ng": 1334,
      "Ġthuyáº¿t": 1335,
      "Ãºi": 1336,
      "ĠDanh": 1337,
      "Ġháº¡n": 1338,
      "Ġtriá»ĩu": 1339,
      "Ġkiáº¿n": 1340,
      "yl": 1341,
      "ib": 1342,
      "Ġmáº¥t": 1343,
      "Ġpháº£n": 1344,
      "our": 1345,
      "Ġtay": 1346,
      "ĠhÆ°á»Ľng": 1347,
      "Ġhá»¯u": 1348,
      "Ġsang": 1349,
      "ĠÄĳoáº¡n": 1350,
      "Ġtrá»±c": 1351,
      "ĠlÆ°u": 1352,
      "eg": 1353,
      "ep": 1354,
      "Ġtra": 1355,
      "ĠsÆ°": 1356,
      "ÃŃt": 1357,
      "iÃªng": 1358,
      "Ġmáº¡ng": 1359,
      "Ġbá»ĩnh": 1360,
      "ĠÃĤu": 1361,
      "Ġmáº¡nh": 1362,
      "ĠlÃ£nh": 1363,
      "az": 1364,
      "ĠHá»Ļi": 1365,
      "igh": 1366,
      "ĠThanh": 1367,
      "Ġan": 1368,
      "Ġchiáº¿m": 1369,
      "Ġnguá»ĵn": 1370,
      "ff": 1371,
      "son": 1372,
      "Ġchá»©ng": 1373,
      "ĠgÃ¢y": 1374,
      "ĠâĢ": 1375,
      "Ã£i": 1376,
      "art": 1377,
      "ĠlÃºc": 1378,
      "ĠPhim": 1379,
      "ĠniÃªn": 1380,
      "Äĳ": 1381,
      "ĠnghiÃªn": 1382,
      "Ġgiá»Ŀ": 1383,
      "Ġká»ĥ": 1384,
      "Ã¡u": 1385,
      "Ġnhiá»ĩt": 1386,
      "Ġtáº¥t": 1387,
      "ĠDo": 1388,
      "Ġgá»ĳc": 1389,
      "amp": 1390,
      "und": 1391,
      "uÃ¢n": 1392,
      "ĠphÃ©p": 1393,
      "áº«u": 1394,
      "ĠÄĳáº¡t": 1395,
      "Ġláº¥y": 1396,
      "ĠÄĲáº£ng": 1397,
      "Ġmu": 1398,
      "ack": 1399,
      "Ġchá»įn": 1400,
      "ĠAm": 1401,
      "ĠSp": 1402,
      "ĠII": 1403,
      "áº¯p": 1404,
      "ĠÄĳá»Ļc": 1405,
      "21": 1406,
      "ĠgiÃºp": 1407,
      "ĠSinh": 1408,
      "Ġ|-": 1409,
      "Ġcáº£m": 1410,
      "ĠcÆ°": 1411,
      "ĠchÆ°a": 1412,
      "ĠTháº¿": 1413,
      "ĠLa": 1414,
      "ĠcÃ¢y": 1415,
      "ass": 1416,
      "ĠKhi": 1417,
      "á»ĥ": 1418,
      "Ġxáº¿p": 1419,
      "ĠThá»±c": 1420,
      "ĠgiÃ¡p": 1421,
      "ÄĲ": 1422,
      "ĠSá»±": 1423,
      "ĠNá»Ļi": 1424,
      "ĠThiÃªn": 1425,
      "Ġvi": 1426,
      "Ġváº¥n": 1427,
      "ach": 1428,
      "Ġtrai": 1429,
      "Ġáº¤": 1430,
      "ĠXem": 1431,
      "ĠphÃ¡": 1432,
      "Th": 1433,
      "Ġkhá»ıi": 1434,
      "ĠbÃłn": 1435,
      "Ġmá»Ĺi": 1436,
      "áº©u": 1437,
      "ĠngÃ´i": 1438,
      "Ã³c": 1439,
      "ĠluáºŃt": 1440,
      "Ġchia": 1441,
      "ug": 1442,
      "ĠkÃŃch": 1443,
      "ĠhÆ°á»Łng": 1444,
      "Ġtá»ĳt": 1445,
      "Ġná»Ļi": 1446,
      "Ġhuy": 1447,
      "Ġsao": 1448,
      "ĠtÃ¢y": 1449,
      "ĠquáºŃn": 1450,
      "ies": 1451,
      "ĠPar": 1452,
      "Ġcáº§n": 1453,
      "ĠgiÃłnh": 1454,
      "17": 1455,
      "Ġem": 1456,
      "ĠváºŃy": 1457,
      "ex": 1458,
      "ĠLong": 1459,
      "Ġ.": 1460,
      "Ġmáº¯t": 1461,
      "ĠkhÃ¡ch": 1462,
      "á»±a": 1463,
      "...": 1464,
      "ĠDÃ¢n": 1465,
      "Ġmiá»ģn": 1466,
      "Ġkháº£": 1467,
      "Ġlá»£": 1468,
      "Ġháº¿t": 1469,
      "ast": 1470,
      "Ġtráº»": 1471,
      "ĠLá»ĭch": 1472,
      "á»ħ": 1473,
      "iáº¿ng": 1474,
      "Ġcá»ĳ": 1475,
      "ĠThu": 1476,
      "Ġtráº¥n": 1477,
      "ly": 1478,
      "ĠNha": 1479,
      "Ġtuyáº¿n": 1480,
      "ĠCar": 1481,
      "ĠThÃ¡ng": 1482,
      "«a": 1483,
      "ĠÄĲá»Ļ": 1484,
      "Ġ2010": 1485,
      "Ġlá»Ŀi": 1486,
      "ĠcÃ¡nh": 1487,
      "ore": 1488,
      "Ġdá»¥c": 1489,
      "Ã¬n": 1490,
      "ĠLÃ½": 1491,
      "Ġtá»·": 1492,
      "Ġkhai": 1493,
      "Ġchá»¯": 1494,
      "ĠvÅ©": 1495,
      "Ġxem": 1496,
      "ĠthÆ°á»Łng": 1497,
      "ĠMÃ£": 1498,
      "ĠÃŃt": 1499,
      "end": 1500,
      "ĠcÃ¡o": 1501,
      "áº§y": 1502,
      "Ġtriá»ģu": 1503,
      "ge": 1504,
      "ĠGiÃ¡o": 1505,
      "land": 1506,
      "ĠchuyÃªn": 1507,
      "ĠbiÃªn": 1508,
      "12": 1509,
      "Ġtuáº§n": 1510,
      "Æ°á»¡": 1511,
      "ĠnÃºi": 1512,
      "Ġlá»ĩnh": 1513,
      "15": 1514,
      "á»§ng": 1515,
      "ĠPhi": 1516,
      "ind": 1517,
      "ĠHá»ĵ": 1518,
      "Ġáº¤n": 1519,
      "ĠgÃ¡i": 1520,
      "Ġngoáº¡i": 1521,
      "Ġquay": 1522,
      "16": 1523,
      "Ġ30": 1524,
      "Ġ2007": 1525,
      "ort": 1526,
      "Ġgiáº£m": 1527,
      "Ã©o": 1528,
      "Ġdu": 1529,
      "22": 1530,
      "Ġthanh": 1531,
      "Ġkhiáº¿n": 1532,
      "ĠTiá»ĥu": 1533,
      "Ġbáº§u": 1534,
      "iáº¿m": 1535,
      "ĠTráº§n": 1536,
      "ond": 1537,
      "ity": 1538,
      "ĠÄĳa": 1539,
      "ĠXÃ´": 1540,
      "ier": 1541,
      "Ġdoanh": 1542,
      "Ġtuyá»ĥn": 1543,
      "ĠCu": 1544,
      "ĠTrÆ°á»Ŀng": 1545,
      "ish": 1546,
      "Ġduy": 1547,
      "Ġchuáº©n": 1548,
      "ert": 1549,
      "ĠkÃª": 1550,
      "ight": 1551,
      "Ġ25": 1552,
      "Ġsá»©c": 1553,
      "ĠHÃłn": 1554,
      "orn": 1555,
      "Ġgáº·p": 1556,
      "ĠÄĳáº¿": 1557,
      "Ġchá»ĭ": 1558,
      "Ġbá»ķ": 1559,
      "Ġlá»Ľp": 1560,
      "Ġbáº¡i": 1561,
      "iz": 1562,
      "oy": 1563,
      "ĠTÃ¢n": 1564,
      "ĠHy": 1565,
      "ĠthiÃªn": 1566,
      "Ġtá»ĭch": 1567,
      "Ã£o": 1568,
      "Â²": 1569,
      "ĠÐ": 1570,
      "ĠthÃºc": 1571,
      "Ġ2006": 1572,
      "ĠÃ¡p": 1573,
      "Ġkháº©u": 1574,
      "Ġnghiá»ĩm": 1575,
      "14": 1576,
      "ick": 1577,
      "á»¥y": 1578,
      "Ġcá»¥": 1579,
      "ĠtháºŃp": 1580,
      "ĠphiÃªn": 1581,
      "ĠriÃªng": 1582,
      "Ãłm": 1583,
      "ata": 1584,
      "ĠvÃłng": 1585,
      "Ġhá»Ĺ": 1586,
      "ĠGr": 1587,
      "ĠtÆ°á»Łng": 1588,
      "ans": 1589,
      "ĠXÃ£": 1590,
      "ĠÄĲáº¿": 1591,
      "ĠHá»ĵng": 1592,
      "uÃ´i": 1593,
      "ain": 1594,
      "ĠÄĲÃ¢y": 1595,
      "Ġlá»£i": 1596,
      "Ġnghá»ĭ": 1597,
      "Ġká»¹": 1598,
      "idae": 1599,
      "ern": 1600,
      "Ġtá»ĵ": 1601,
      "¦y": 1602,
      "Ġphá»ķ": 1603,
      "Ġhoa": 1604,
      "Ġlá»ħ": 1605,
      "Ġháº§u": 1606,
      "Ġná»ģn": 1607,
      "ĠKhÃ´ng": 1608,
      "ĠVÅ©": 1609,
      "ĠChá»§": 1610,
      "uáº¥n": 1611,
      "ÃŃn": 1612,
      "ĠluáºŃn": 1613,
      "áº£m": 1614,
      "Ġtiáº¿t": 1615,
      "ath": 1616,
      "kh": 1617,
      "ĠÄĲá»Ļng": 1618,
      "ĠKim": 1619,
      "ĠdÆ°Æ¡ng": 1620,
      "ĠCl": 1621,
      "Ġá»¦y": 1622,
      "Ġxuá»ĳng": 1623,
      "ĠLÃª": 1624,
      "Ġthá»§y": 1625,
      "199": 1626,
      "á»©a": 1627,
      "Ġmáº¹": 1628,
      "13": 1629,
      "ace": 1630,
      "áºŃm": 1631,
      "se": 1632,
      "ite": 1633,
      "ĠgiÃ¡m": 1634,
      "ĠCol": 1635,
      "Ġalbum": 1636,
      "áº¯m": 1637,
      "Ġtá»©": 1638,
      "ĠNguyÃªn": 1639,
      "ĠTáº¡i": 1640,
      "Ġkiá»ĥm": 1641,
      "ĠLoÃłi": 1642,
      "Ġrá»ĵi": 1643,
      "Ġcháº¡y": 1644,
      "ica": 1645,
      "ana": 1646,
      "ork": 1647,
      "ĠÄĳá»ĳc": 1648,
      "ĠHÃ¡n": 1649,
      "Ġphi": 1650,
      "ĠÃĿ": 1651,
      "Ġbáº£ng": 1652,
      "ĠthÃ¡i": 1653,
      "á»Ľi": 1654,
      "Ġmá»įi": 1655,
      "ĠKinh": 1656,
      "ĠÄĲá»ĵng": 1657,
      "Ġ2000": 1658,
      "Ġmuá»ĳn": 1659,
      "ĠTÆ°": 1660,
      "Ġtá»ĵn": 1661,
      "ĠtuyÃªn": 1662,
      "Ġlá»Ļ": 1663,
      "Ġdung": 1664,
      "ĠdÃ²ng": 1665,
      "ann": 1666,
      "ague": 1667,
      "Ġáº¥y": 1668,
      "Ġcá»Ńa": 1669,
      "'s": 1670,
      "Ġcá»±c": 1671,
      "Ġdá»±a": 1672,
      "Ġbáº¡n": 1673,
      "Ġhá»ı": 1674,
      "ĠThá»ĭ": 1675,
      "ĠSc": 1676,
      "Ġ=": 1677,
      "ĠÄĲÃ´": 1678,
      "ĠJoh": 1679,
      "Ġ21": 1680,
      "Ġtá»ĳi": 1681,
      "Ġtháº¥p": 1682,
      "ĠchÃ¢n": 1683,
      "ign": 1684,
      "ith": 1685,
      "ĠÄĳá»©ng": 1686,
      "Ġlá»¥c": 1687,
      "ĠlÃłng": 1688,
      "ĠmáºŃt": 1689,
      "ide": 1690,
      "Ã£ng": 1691,
      "ĠcáºŃp": 1692,
      "Ġthá»Ŀ": 1693,
      "Ġmáº«u": 1694,
      "Ġtháº¥t": 1695,
      "Ġluyá»ĩn": 1696,
      "Æ°á»¡ng": 1697,
      "Ġ24": 1698,
      "Ġmá»©c": 1699,
      "ĠHo": 1700,
      "Ġtá»ĳ": 1701,
      "Ġa": 1702,
      "ĠphÃ³ng": 1703,
      "CN": 1704,
      "ĠCÃ³": 1705,
      "Ġquáº§n": 1706,
      "ont": 1707,
      "Ġnhanh": 1708,
      "Ġ,": 1709,
      "ĠtrÃºc": 1710,
      "Ġháº¡": 1711,
      "ĠcáºŃn": 1712,
      "Ġ190": 1713,
      "ĠAs": 1714,
      "ld": 1715,
      "ĠphÃ¡o": 1716,
      "ĠÄĳÃ´i": 1717,
      "enn": 1718,
      "Ġ2009": 1719,
      "ĠTÃ´ng": 1720,
      "ary": 1721,
      "ara": 1722,
      "lin": 1723,
      "ĠTiÃªn": 1724,
      "Ġcoi": 1725,
      "ĠÄĲá»ĭa": 1726,
      "ĠÄĳÃ¡ng": 1727,
      "įng": 1728,
      "ate": 1729,
      "ĠCao": 1730,
      "23": 1731,
      "11": 1732,
      "ĠvÃ¢y": 1733,
      "Ġpháº¡m": 1734,
      "ĠNgoÃłi": 1735,
      "Ġgiai": 1736,
      "):": 1737,
      "Ġcáº£i": 1738,
      "ek": 1739,
      "Ġ23": 1740,
      "=\"": 1741,
      "Ġvá»£": 1742,
      "ĠBl": 1743,
      "ĠIs": 1744,
      "Ġháº¡t": 1745,
      "Ġná»¯a": 1746,
      "ĠEl": 1747,
      "ĠHÃ²a": 1748,
      "Ġcáº¥u": 1749,
      "Ch": 1750,
      "ĠGu": 1751,
      "ĠmÃ´i": 1752,
      "ĠsÃ³ng": 1753,
      "ĠÆ°á»Ľc": 1754,
      "ĠGiang": 1755,
      "Ġnáº¿u": 1756,
      "ĠthÆ¡": 1757,
      "Ġ2008": 1758,
      "áº¹p": 1759,
      "uyá»ĩt": 1760,
      "Ġ2016": 1761,
      "ĠCÃ´": 1762,
      "Ã£n": 1763,
      "Ġngay": 1764,
      "Ġquanh": 1765,
      "ash": 1766,
      "ĠÄĳá»§": 1767,
      "ĠngÃ´n": 1768,
      "Ġnháº±m": 1769,
      "Ġmáº·c": 1770,
      "ĠGia": 1771,
      "ĠPl": 1772,
      "Ġ2011": 1773,
      "Ġgiáº¿t": 1774,
      "ĠlÃ¢u": 1775,
      "ĠSch": 1776,
      "Ġthá»ķ": 1777,
      "ium": 1778,
      "yn": 1779,
      "Ġlá»Ńa": 1780,
      "à¸": 1781,
      "ĠtoÃ¡n": 1782,
      "Ġ2004": 1783,
      "ĠtÃ´i": 1784,
      "Ã³n": 1785,
      "ĠrÃµ": 1786,
      "ĠpháºŃn": 1787,
      "one": 1788,
      "ĠmÃ´n": 1789,
      "oph": 1790,
      "Ġhoáº¡ch": 1791,
      "ĠphÃ¡i": 1792,
      "ĠQuáº£ng": 1793,
      "Ġ2014": 1794,
      "ĠÄĲÆ°á»Ŀng": 1795,
      "ĠBáº£o": 1796,
      "ĠKhu": 1797,
      "á»Ĺi": 1798,
      "Ġ22": 1799,
      "ame": 1800,
      "ĠvÃłi": 1801,
      "Ġ2015": 1802,
      "ĠFran": 1803,
      "iá»ħ": 1804,
      "yr": 1805,
      "ada": 1806,
      "ĠLeague": 1807,
      "ĠÄĲÃłi": 1808,
      "ĠEn": 1809,
      "ĠChu": 1810,
      "Ġ2012": 1811,
      "Ġtá»ĳc": 1812,
      "Ġtruyá»ĩn": 1813,
      "ĠdÃłnh": 1814,
      "Åį": 1815,
      "Ã©m": 1816,
      "Ã´m": 1817,
      "Ġtá»©c": 1818,
      "ĠkhÃºc": 1819,
      "les": 1820,
      "amb": 1821,
      "50": 1822,
      "á»īnh": 1823,
      "ĠÄĳÃłi": 1824,
      "Ġcháº¥p": 1825,
      "II": 1826,
      "Ġbáº¯n": 1827,
      "ock": 1828,
      "ius": 1829,
      "ĠtÃ´n": 1830,
      "Ġchiá»ģu": 1831,
      "Ġbá»ĳn": 1832,
      "ory": 1833,
      "Ġá»ŀ": 1834,
      "Ġ2013": 1835,
      "ĠkÃ©o": 1836,
      "ĠCan": 1837,
      "ei": 1838,
      "Ġtho": 1839,
      "ĠPhil": 1840,
      "Ġá»§y": 1841,
      "ĠngÃłnh": 1842,
      "ĠPhÃ³": 1843,
      "ez": 1844,
      "Ġ189": 1845,
      "Ġxa": 1846,
      "iss": 1847,
      "ĠBar": 1848,
      "ĠLu": 1849,
      "Ġtrao": 1850,
      "ĠÄĳÃłn": 1851,
      "ĠkhÃ³": 1852,
      "ĠLÆ°u": 1853,
      "Ġchá»©a": 1854,
      "ĠJohn": 1855,
      "ĠÄĳá»Ľi": 1856,
      "ĠHá»į": 1857,
      "Ġcha": 1858,
      "Ġ2018": 1859,
      "Ġchuyá»ĩn": 1860,
      "Ġbuá»Ļc": 1861,
      "ĠtÆ°á»Ľc": 1862,
      "Ġngáº¯n": 1863,
      "Ġká»ĭch": 1864,
      "ĠÄĳÄ©a": 1865,
      "Ġ2017": 1866,
      "ipp": 1867,
      "Ġcáº¡nh": 1868,
      "Ġthiáº¿u": 1869,
      "ĠÄĲiá»ģu": 1870,
      "Ġchá»ĭu": 1871,
      ".\"": 1872,
      "ĠThÆ°á»£ng": 1873,
      "Ġháº£i": 1874,
      "ĠlÄ©nh": 1875,
      "ĠlÃ¡": 1876,
      "ĠNinh": 1877,
      "Ġtá»ı": 1878,
      "Ġ2005": 1879,
      "Ġrá»«ng": 1880,
      "ĠgÃ³": 1881,
      "Ġtrá»¥": 1882,
      "ĠMan": 1883,
      "ĠCal": 1884,
      "Ġkhá»Łi": 1885,
      "ĠhÃ´n": 1886,
      "orld": 1887,
      "ĠÄĳai": 1888,
      "á»±u": 1889,
      "sinh": 1890,
      "Ġná»ĳi": 1891,
      "ĠTáºŃp": 1892,
      "ĠNá»¯": 1893,
      "Ġhá»ĵi": 1894,
      "ĠtÃ¹": 1895,
      ".,": 1896,
      "tern": 1897,
      "Ġ100": 1898,
      "á»£i": 1899,
      "rom": 1900,
      "ĠBÃł": 1901,
      "oan": 1902,
      "Ġtráº¯ng": 1903,
      "Ġniá»ĩm": 1904,
      "Ġtrá»¥c": 1905,
      "ĠAd": 1906,
      "ĠnÃ´ng": 1907,
      "Ġchiáº¿u": 1908,
      "Ġ26": 1909,
      "ĠPro": 1910,
      "ĠMal": 1911,
      "ĠÃļ": 1912,
      "Ġ2019": 1913,
      "ĠTriá»ģu": 1914,
      "Ð°": 1915,
      "ĠHiá»ĩp": 1916,
      "Ð¾": 1917,
      "ĠOr": 1918,
      "Ġháº¡i": 1919,
      "ĠgÃ¬": 1920,
      "ĠEd": 1921,
      "ĠCom": 1922,
      "ĠAnd": 1923,
      "lor": 1924,
      "ideo": 1925,
      "Ġtráº£": 1926,
      "ĠChi": 1927,
      "Ġloáº¡t": 1928,
      "ĠCÆ¡": 1929,
      "Æ°á»Ŀn": 1930,
      "Ġnáº·ng": 1931,
      "ial": 1932,
      "Ġ27": 1933,
      "ka": 1934,
      "Ġbá»Ŀ": 1935,
      "ĠcÅ©": 1936,
      "ĠtÃ²a": 1937,
      "eth": 1938,
      "Ġ/": 1939,
      "ĠChÃºng": 1940,
      "ect": 1941,
      "Ġ28": 1942,
      "sh": 1943,
      "ĠnhÃ¬n": 1944,
      "ĠSer": 1945,
      "ĠsÃ¢u": 1946,
      "Ġtráº¡ng": 1947,
      "ĠBe": 1948,
      "ĠQuáºŃn": 1949,
      "Ġxáº£y": 1950,
      "ct": 1951,
      "ĠViá»ĩn": 1952,
      "per": 1953,
      "ice": 1954,
      "ĠHai": 1955,
      "Ġweb": 1956,
      "ft": 1957,
      "ĠphÃŃ": 1958,
      "Ġxá»Ń": 1959,
      "ax": 1960,
      "ĠÆ°Æ¡ng": 1961,
      "Ġphá»ĳi": 1962,
      "Ã¢ng": 1963,
      "ĠHu": 1964,
      "Ġ192": 1965,
      "ost": 1966,
      "ley": 1967,
      "ĠSan": 1968,
      "ĠÄĳen": 1969,
      "Ġ[": 1970,
      "ĠThá»§": 1971,
      "Ġmua": 1972,
      "Ġ1999": 1973,
      "ĠUS": 1974,
      "ĠvÆ°á»£t": 1975,
      "Ġthuá»ĳc": 1976,
      "ĠtÃ¡i": 1977,
      "urg": 1978,
      "ĠkhÃ³a": 1979,
      "Ġmáº¡i": 1980,
      "Ã¨o": 1981,
      "Ġkim": 1982,
      "Ġmá»ĳi": 1983,
      "ĠRe": 1984,
      "ĠHar": 1985,
      "ust": 1986,
      "tt": 1987,
      "ile": 1988,
      "áº§ng": 1989,
      "orm": 1990,
      "Ġtá»Ļi": 1991,
      "ĠDi": 1992,
      "Ġtáº£i": 1993,
      "ime": 1994,
      "ĠIS": 1995,
      "ĠCÃ¡": 1996,
      "ĠInd": 1997,
      "á»ĭnh": 1998,
      "Ġthao": 1999,
      "ĠÄĳÃªm": 2000,
      "co": 2001,
      "Ġsuáº¥t": 2002,
      "Ã¼": 2003,
      "ĠQuang": 2004,
      "ĠPháº§n": 2005,
      "ys": 2006,
      "Ġxá»©": 2007,
      "áº©y": 2008,
      "Ġ2020": 2009,
      "Ġbá»©c": 2010,
      "ĠthuáºŃn": 2011,
      "age": 2012,
      "ĠsÃºng": 2013,
      "Tr": 2014,
      "ler": 2015,
      "Ġthá»Ń": 2016,
      "ĠYork": 2017,
      "ĠWorld": 2018,
      "ĠÄĲáº¿n": 2019,
      "30": 2020,
      "BN": 2021,
      "Ġxung": 2022,
      "áºµ": 2023,
      "ĠTrang": 2024,
      "ico": 2025,
      "ĠbÄĥng": 2026,
      "ĠrÃºt": 2027,
      "ĠChÃŃ": 2028,
      "ĠThÃ´ng": 2029,
      "ĠPhÆ°Æ¡ng": 2030,
      "ĠÄĳáº§y": 2031,
      "iel": 2032,
      "ĠnuÃ´i": 2033,
      "ĠBÃłi": 2034,
      "ma": 2035,
      "ett": 2036,
      "ĠGe": 2037,
      "Ġsá»©": 2038,
      "áº·n": 2039,
      "ĠXuÃ¢n": 2040,
      "ama": 2041,
      "ĠGiÃ¡m": 2042,
      "Ġ188": 2043,
      "Ġdá»ħ": 2044,
      "Ġtáº¡p": 2045,
      "ĠtrÃ¡i": 2046,
      "ĠÄĳá»ı": 2047,
      "ase": 2048,
      "na": 2049,
      "ĠPhÃº": 2050,
      "ĠBo": 2051,
      "ãĥ": 2052,
      "ĠÃļc": 2053,
      "Ġdá»¯": 2054,
      "Ġbuá»ķi": 2055,
      "ĠThá»¥y": 2056,
      "ĠxÃ©t": 2057,
      "á»·": 2058,
      "org": 2059,
      "Ġchuyáº¿n": 2060,
      "ĠLÃ¢m": 2061,
      "ĠYÃªn": 2062,
      "Ġthá»¥": 2063,
      "ix": 2064,
      "Ġvá»ĳn": 2065,
      "ĠHe": 2066,
      "bo": 2067,
      "Ġsai": 2068,
      "Ġchá»§ng": 2069,
      "Ġsong": 2070,
      "uch": 2071,
      "ĠtrÃ¡ch": 2072,
      "ĠsoÃ¡t": 2073,
      "ĠThÃ¡nh": 2074,
      "aul": 2075,
      "old": 2076,
      "Ġkiáº¿m": 2077,
      "ĠCo": 2078,
      "ino": 2079,
      "ensis": 2080,
      "ĠPhong": 2081,
      "att": 2082,
      "Ð¸": 2083,
      "Ġtáº§ng": 2084,
      "ĠÄĳÄĥng": 2085,
      "ĠAir": 2086,
      "ĠmÃ£": 2087,
      "res": 2088,
      "ĠlÆ°á»£c": 2089,
      "iáº¿p": 2090,
      "ĠÄĳáº£m": 2091,
      "Ġhiá»ĩp": 2092,
      "Ġhá»įa": 2093,
      "198": 2094,
      "Ġu": 2095,
      "tiáº¿ng": 2096,
      "Ġvu": 2097,
      "ĠtrÃ¬": 2098,
      "Ġ29": 2099,
      "ĠSe": 2100,
      "á»¡": 2101,
      "Ġon": 2102,
      "ĠluÃ´n": 2103,
      "Ðµ": 2104,
      "ĠTam": 2105,
      "ĠgÃ³p": 2106,
      "ĠÄĲá»ĭnh": 2107,
      "Ġ2001": 2108,
      "ym": 2109,
      "Ġlinh": 2110,
      "ĠAle": 2111,
      "Ġrá»Ŀi": 2112,
      "ood": 2113,
      "ĠMáº·c": 2114,
      "ĠÄĳÃŃch": 2115,
      "ive": 2116,
      "ĠMáº·t": 2117,
      "ĠDe": 2118,
      "ĠBer": 2119,
      "ĠCá»ķ": 2120,
      "Ġkiá»ĥu": 2121,
      "Ġdáº¥u": 2122,
      "ict": 2123,
      "Ġla": 2124,
      "ĠÄĳá»Ļt": 2125,
      "ģm": 2126,
      "Ġthoáº¡i": 2127,
      "ĠWar": 2128,
      "ĠCr": 2129,
      "sp": 2130,
      "ĠtrÃ¹ng": 2131,
      "ĠLáº¡p": 2132,
      "Ġ1998": 2133,
      "ĠTá»īnh": 2134,
      "ĠbÃło": 2135,
      "row": 2136,
      "ya": 2137,
      "ĠcÃłng": 2138,
      "ĠlÃ²ng": 2139,
      "ĠÄĳÃło": 2140,
      "ĠhÃ£ng": 2141,
      "Ġda": 2142,
      "Ġhuáº¥n": 2143,
      "Ġ187": 2144,
      "Ġ50": 2145,
      "Ġ'": 2146,
      "ĠvÃłnh": 2147,
      "ĠquÃ¡n": 2148,
      "ĠÄĲá»Ļi": 2149,
      "Ġ186": 2150,
      "ĠÄĳÆ°Æ¡ng": 2151,
      "ver": 2152,
      "Ġ2003": 2153,
      "Ġgh": 2154,
      "Ġxanh": 2155,
      "ĠTrÆ°á»Ľc": 2156,
      "Ġsuá»ĳt": 2157,
      "Ġsuy": 2158,
      "oll": 2159,
      "á»įt": 2160,
      "ĠhÃłm": 2161,
      "Ġcuá»ĳn": 2162,
      "Ġhá»§y": 2163,
      "ĠchÃºa": 2164,
      "ĠphÃª": 2165,
      "ĠlÆ°á»£t": 2166,
      "ines": 2167,
      "aj": 2168,
      "ĠAb": 2169,
      "ĠcÄĥn": 2170,
      "iá»ħm": 2171,
      "ĠÄĳáº£ng": 2172,
      "Ġ1990": 2173,
      "ĠtrÆ°ng": 2174,
      "ĠGiá»": 2175,
      "de": 2176,
      "Ġnáº¡n": 2177,
      "Ã£y": 2178,
      "ĠtÃŃn": 2179,
      "ĠRob": 2180,
      "40": 2181,
      "Ph": 2182,
      "Ã¨n": 2183,
      "ii": 2184,
      "com": 2185,
      "Ġá»§ng": 2186,
      "||": 2187,
      "ania": 2188,
      "ĠThá»Ŀi": 2189,
      "ĠPhÃ¢n": 2190,
      "Ġmá»ģm": 2191,
      "oss": 2192,
      "Ġnghi": 2193,
      "ĠVá»Ľi": 2194,
      "Ġst": 2195,
      "ĠsÆ¡": 2196,
      "Ã¶": 2197,
      "iam": 2198,
      "Ġkhá»ĳi": 2199,
      "yp": 2200,
      "ho": 2201,
      "uá»ķi": 2202,
      "ĠKhoa": 2203,
      "ĠxuyÃªn": 2204,
      "Ġngá»±a": 2205,
      "25": 2206,
      "ãģ": 2207,
      "ĠPháºŃt": 2208,
      "bia": 2209,
      "Ġthá»«a": 2210,
      "Ġkáº»": 2211,
      "gh": 2212,
      "era": 2213,
      "ĠkÃŃnh": 2214,
      "ew": 2215,
      "ĠÄĳiá»ĥn": 2216,
      "Ġdáº§n": 2217,
      "ĠHáºŃu": 2218,
      "ĠNgá»įc": 2219,
      "oth": 2220,
      "ĠMÃ¡y": 2221,
      "ĠSm": 2222,
      "ald": 2223,
      "Ġ31": 2224,
      "Ġtrá»Ŀi": 2225,
      "ĠkhÃ¡": 2226,
      "ĠWill": 2227,
      "ĠRom": 2228,
      "ĠÄĳáº¡n": 2229,
      "ĠNghá»ĩ": 2230,
      "ini": 2231,
      "ĠViá»ĩc": 2232,
      "ĠPer": 2233,
      "och": 2234,
      "ĠPal": 2235,
      "sc": 2236,
      "ĠHÃ¬nh": 2237,
      "Ġngáº§m": 2238,
      "ĠSá»ĳ": 2239,
      "ĠTrÆ°Æ¡ng": 2240,
      "ĠtháºŃt": 2241,
      "Ġfor": 2242,
      "ĠCuá»Ļc": 2243,
      "ĠMus": 2244,
      "act": 2245,
      "iá»ģm": 2246,
      "Ġhá»ıi": 2247,
      "ones": 2248,
      "Ġthá»ĭt": 2249,
      "ĠISBN": 2250,
      "asil": 2251,
      "Ġtrá»«": 2252,
      "ĠFr": 2253,
      "ĠgiÃ¡c": 2254,
      "Ġvá»«a": 2255,
      "ose": 2256,
      "ĠNor": 2257,
      "ella": 2258,
      "ĠÄĳáº©y": 2259,
      "ĠHÆ°ng": 2260,
      "ĠÄĲÃło": 2261,
      "Ġ40": 2262,
      "ure": 2263,
      "ĠPhÃŃa": 2264,
      "Ġlao": 2265,
      "197": 2266,
      "Ġdá»ĭ": 2267,
      "Ġvá»įng": 2268,
      "á»¥ng": 2269,
      "ĠEm": 2270,
      "ivers": 2271,
      "Ġtháº£o": 2272,
      "ale": 2273,
      "Ġná»ķ": 2274,
      "ĠÃ¡nh": 2275,
      "ĠSÆ°": 2276,
      "Ġmm": 2277,
      "Ġ2002": 2278,
      "ĠChar": 2279,
      "ĠTCN": 2280,
      "ĠGre": 2281,
      "ĠVÄ©nh": 2282,
      "ĠÄĲáº¡o": 2283,
      "ien": 2284,
      "Ġloáº¡n": 2285,
      "ĠDav": 2286,
      "berg": 2287,
      "Ġsá»Ńa": 2288,
      "ĠthÃŃ": 2289,
      "60": 2290,
      "ĠngÄĥn": 2291,
      "ions": 2292,
      "itt": 2293,
      "ĠPhÃºc": 2294,
      "ĠThá»ĳng": 2295,
      "Ġnhu": 2296,
      "Ġthiá»ĩn": 2297,
      "Ð½": 2298,
      "ĠSÃ¢n": 2299,
      "Ġmá»Ļ": 2300,
      "ca": 2301,
      "ĠTÃªn": 2302,
      "ĠVÃ¬": 2303,
      "ĠCanada": 2304,
      "Ġtuy": 2305,
      "ment": 2306,
      "Ġ2021": 2307,
      "ĠChÆ°Æ¡ng": 2308,
      "Ã¹i": 2309,
      "ãĤ": 2310,
      "ĠmÃ©t": 2311,
      "ĠphÃºt": 2312,
      "á»Ńi": 2313,
      "ĠMich": 2314,
      "ĠlÃŃnh": 2315,
      "Ġchá»īnh": 2316,
      "ĠMon": 2317,
      "ĠNgÃ´": 2318,
      "ĠThá»§y": 2319,
      "ark": 2320,
      "ura": 2321,
      "ican": 2322,
      "ĠbÃły": 2323,
      "ĠnÃ¢ng": 2324,
      "ĠQuan": 2325,
      "ĠâĢĶ": 2326,
      "ĠCup": 2327,
      "yc": 2328,
      "ĠÄĳáº¹p": 2329,
      "ott": 2330,
      "Ġnhiá»ħm": 2331,
      "Ġháº¡m": 2332,
      "uz": 2333,
      "ĠquÃ½": 2334,
      "Ġtráº£i": 2335,
      "va": 2336,
      "ational": 2337,
      "ris": 2338,
      "ron": 2339,
      "ena": 2340,
      "burg": 2341,
      "ĠMin": 2342,
      "amm": 2343,
      "Ġdiá»ĩt": 2344,
      "ner": 2345,
      "Ġcáº§m": 2346,
      "ĠphÃ¹": 2347,
      "ĠtÃłng": 2348,
      "ames": 2349,
      "áºµn": 2350,
      "Ġáº¢": 2351,
      "yd": 2352,
      "Ġliá»ĩt": 2353,
      "ited": 2354,
      "FA": 2355,
      "ĠDu": 2356,
      "Ġnhá»Ŀ": 2357,
      "rid": 2358,
      "Ġhiá»ĥm": 2359,
      "ĠPet": 2360,
      "ĠchÃ³ng": 2361,
      "80": 2362,
      "ĠtÃ¡": 2363,
      "Ġchim": 2364,
      "ĠTÃ²a": 2365,
      "Ġlai": 2366,
      "ĠKar": 2367,
      "Ġat": 2368,
      "ear": 2369,
      "ĠPol": 2370,
      "ĠPhilipp": 2371,
      "Ġtiá»ĩn": 2372,
      "ĠPhÃ²ng": 2373,
      "Ġ1997": 2374,
      "ĠthÃº": 2375,
      "ĠWal": 2376,
      "24": 2377,
      "ĠCa": 2378,
      "ĠÄĲáº¥t": 2379,
      "Ġcáº¯t": 2380,
      "Ġsá»Ľ": 2381,
      "ÑĢ": 2382,
      "ĠkÃªnh": 2383,
      "ward": 2384,
      "ail": 2385,
      "ĠSo": 2386,
      "ĠAng": 2387,
      "ĠHer": 2388,
      "ĠbÆ°á»Ľc": 2389,
      "ĠxÃ¢m": 2390,
      "Ġgá»Ńi": 2391,
      "Ġnguy": 2392,
      "ĠMo": 2393,
      "ĠtrÃło": 2394,
      "ĠTrÃ¡i": 2395,
      "ĠthÃ´n": 2396,
      "ĠAi": 2397,
      "Ġsáº¯t": 2398,
      "ari": 2399,
      "Ġhiá»ĥu": 2400,
      "int": 2401,
      "ĠTiá»ģn": 2402,
      "ĠthÃ¹": 2403,
      "ĠMad": 2404,
      "ĠAmer": 2405,
      "ĠCÃ¢u": 2406,
      "Ġ1996": 2407,
      "Ġtruy": 2408,
      "ays": 2409,
      "Ġchá»Ĺ": 2410,
      "ĠmÃłn": 2411,
      "la": 2412,
      "ĠPháº¡m": 2413,
      "ĠMÃ¹a": 2414,
      "ĠthÄĥm": 2415,
      "Ġpro": 2416,
      "ĠLÆ°Æ¡ng": 2417,
      "Ġtáº§m": 2418,
      "ĠtÃ¡ch": 2419,
      "own": 2420,
      "Ġkháº¯c": 2421,
      "ĠhÆ°Æ¡ng": 2422,
      "ĠSl": 2423,
      "pt": 2424,
      "ĠChá»ī": 2425,
      "ĠHáº¡": 2426,
      "ĠTá»Ń": 2427,
      "Ġcháº³ng": 2428,
      "ĠLoan": 2429,
      "Ġthiá»ĩu": 2430,
      "col": 2431,
      "ĠParis": 2432,
      "aria": 2433,
      "ĠcáºŃu": 2434,
      "ĠthÄĥng": 2435,
      "Ng": 2436,
      "Ġnghe": 2437,
      "ĠbÃ£o": 2438,
      "istan": 2439,
      "are": 2440,
      "ĠAg": 2441,
      "Ġai": 2442,
      "Ġkháº¯p": 2443,
      "Ġvideo": 2444,
      "aur": 2445,
      "ĠÄĳá»īnh": 2446,
      "ĠFo": 2447,
      "ĠÄĳua": 2448,
      "ĠmÆ°u": 2449,
      "ĠMy": 2450,
      "ĠHÃłnh": 2451,
      "ĠHuyá»ĩn": 2452,
      "Ġcai": 2453,
      "ĠÄĲáº·c": 2454,
      "ĠsÃ¡u": 2455,
      "ĠNhÄ©": 2456,
      "á»£p": 2457,
      "ĠxÃºc": 2458,
      "ĠcÆ°á»Ŀng": 2459,
      "ĠÄĳem": 2460,
      "ĠÄĲÆ°á»£c": 2461,
      "ĠHá»ĵi": 2462,
      "ical": 2463,
      "Ġsá»Ľm": 2464,
      "ĠMc": 2465,
      "ĠRed": 2466,
      "ĠÃ¡o": 2467,
      "Ġtáº·ng": 2468,
      "ji": 2469,
      "ĠBÃŃ": 2470,
      "ĠkhÃ¡ng": 2471,
      "iet": 2472,
      "Ġtuyá»ĩt": 2473,
      "ĠphÃ³": 2474,
      "ĠmÃ¡u": 2475,
      "Ġ1991": 2476,
      "ĠhÆ¡i": 2477,
      "ita": 2478,
      "Ãµi": 2479,
      "ĠAp": 2480,
      "Ġ2022": 2481,
      "á»ķng": 2482,
      "Ġquáº£ng": 2483,
      "sen": 2484,
      "ĠÄĳá»į": 2485,
      "ee": 2486,
      "ĠKhÃ¡nh": 2487,
      "ĠbÃŃ": 2488,
      "ĠPhÃ¡t": 2489,
      "ĠNáº¿u": 2490,
      "ĠHuy": 2491,
      "Ġcm": 2492,
      "aceae": 2493,
      "ĠCamp": 2494,
      "Ã²i": 2495,
      "ĠÃ´": 2496,
      "rist": 2497,
      "Ġáº¥n": 2498,
      "ser": 2499,
      "ĠKáº¿t": 2500,
      "ĠÂ": 2501,
      "TV": 2502,
      "Ġ185": 2503,
      "mer": 2504,
      "outh": 2505,
      "ĠNhÆ°ng": 2506,
      "Ġliá»ģn": 2507,
      "ein": 2508,
      "á»įa": 2509,
      "Ġá»ķ": 2510,
      "ĠchÃ³": 2511,
      "ĠBrasil": 2512,
      "ĠlÃ´ng": 2513,
      "ĠÃģo": 2514,
      "Ġchá»ĵng": 2515,
      "ĠTu": 2516,
      "yo": 2517,
      "ats": 2518,
      "45": 2519,
      "áºŃc": 2520,
      "ano": 2521,
      "Ġmá»ı": 2522,
      "ĠNhiá»ģu": 2523,
      "Ġbom": 2524,
      "ane": 2525,
      "Ġphiáº¿u": 2526,
      "ĠÄĲÃ¬nh": 2527,
      "ÅĤ": 2528,
      "Ġ1995": 2529,
      "ĠAlex": 2530,
      "ĠÄĳá»įc": 2531,
      "ĠSa": 2532,
      "ĠAlbum": 2533,
      "ĠSam": 2534,
      "ille": 2535,
      "Ãºy": 2536,
      "ĠphÆ°á»Ŀng": 2537,
      "ĠVá»ģ": 2538,
      "27": 2539,
      "ĠCá»¥c": 2540,
      "ĠCÃ¡ch": 2541,
      "ĠHÃ³a": 2542,
      "iforn": 2543,
      "Ġdá»įc": 2544,
      "Ġtháº³ng": 2545,
      "ĠLinh": 2546,
      "Ġcháº£y": 2547,
      "ĠÄĲiá»ĩn": 2548,
      "ĠFC": 2549,
      "26": 2550,
      "ĠhÃłi": 2551,
      "ĠHá»ĩ": 2552,
      "ros": 2553,
      "Ġ1994": 2554,
      "ĠngÆ°á»£c": 2555,
      "Ġ1992": 2556,
      "ĠMe": 2557,
      "ĠHiá»ĩn": 2558,
      "Ġ1945": 2559,
      "Ġdáº§u": 2560,
      "olog": 2561,
      "ĠthoÃ¡t": 2562,
      "Ġgiáº£n": 2563,
      "ski": 2564,
      "sch": 2565,
      "ĠvÃŃ": 2566,
      "ĠTiáº¿n": 2567,
      "ĠJe": 2568,
      "ĠÄĲá»ĥ": 2569,
      "ĠHá»įc": 2570,
      "ĠIntern": 2571,
      "Å©i": 2572,
      "ola": 2573,
      "ĠUnivers": 2574,
      "Ġnhá»Ľ": 2575,
      "ifornia": 2576,
      "ki": 2577,
      "ney": 2578,
      "ĠTá»±": 2579,
      "ĠtrÃŃch": 2580,
      "Ġdáº¡y": 2581,
      "ida": 2582,
      "out": 2583,
      "ĠHá»£p": 2584,
      "á»Ļn": 2585,
      "ĠbáºŃc": 2586,
      "29": 2587,
      "ima": 2588,
      "Ġkhoáº£n": 2589,
      "ĠbÃ²": 2590,
      "ĠThiáº¿u": 2591,
      "right": 2592,
      "alia": 2593,
      "48": 2594,
      "Ġná»Ńa": 2595,
      "ĠCáºŃp": 2596,
      "ĠCalifornia": 2597,
      "ĠTráºŃn": 2598,
      "Ġcá»Ŀ": 2599,
      "ona": 2600,
      "Ñģ": 2601,
      "ford": 2602,
      "ĠAc": 2603,
      ");": 2604,
      "Ġkhiá»ĥn": 2605,
      "Ġ1980": 2606,
      "Ġby": 2607,
      "ĠVua": 2608,
      "ĠSal": 2609,
      "pl": 2610,
      "ĠsiÃªu": 2611,
      "ĠÄĳÃºng": 2612,
      "ull": 2613,
      "ĠUnited": 2614,
      "Ġxin": 2615,
      "oo": 2616,
      "Ã³t": 2617,
      "ecies": 2618,
      "ĠTá»ĳng": 2619,
      "atus": 2620,
      "ĠWilliam": 2621,
      "ins": 2622,
      "Ġxáº¡": 2623,
      "ene": 2624,
      "ora": 2625,
      "Ġsung": 2626,
      "uel": 2627,
      "enter": 2628,
      "ĠUy": 2629,
      "Ġmáº¡ch": 2630,
      "Ð¾Ð": 2631,
      "ĠÄĳá»£": 2632,
      "á»ĥn": 2633,
      "Ġxá»ī": 2634,
      "Ġcá»±u": 2635,
      "awa": 2636,
      "Ġ()": 2637,
      "eland": 2638,
      "ĠMac": 2639,
      "Ġ1993": 2640,
      "ĠlÃ¢m": 2641,
      "uss": 2642,
      "á»¥p": 2643,
      "Ġgáº¯n": 2644,
      "Ġsáºµn": 2645,
      "km": 2646,
      "ĠTÃłu": 2647,
      "ĠHen": 2648,
      "The": 2649,
      "onia": 2650,
      "Ġxo": 2651,
      "ĠthÆ°á»£ng": 2652,
      "ĠdÃ¢y": 2653,
      "Ġru": 2654,
      "ĠThá»ķ": 2655,
      "Ġtáº¯t": 2656,
      "ĠthÆ°á»Ľc": 2657,
      "ult": 2658,
      "ĠTÃ´n": 2659,
      "ĠEr": 2660,
      "aya": 2661,
      "Ġgáº¯ng": 2662,
      "ĠBá»ĵ": 2663,
      "ington": 2664,
      "ĠthÃ¡p": 2665,
      "ester": 2666,
      "que": 2667,
      "28": 2668,
      "ĠhÃ¨": 2669,
      "ĠrÆ¡i": 2670,
      "ĠNa": 2671,
      "Ġtá»ĳng": 2672,
      "ko": 2673,
      "ĠbÃ¡c": 2674,
      "ĠbÃ£i": 2675,
      "Ġmá»Ŀi": 2676,
      "ÑĤ": 2677,
      "Ġtáº¯c": 2678,
      "ala": 2679,
      "ĠVÃ¢n": 2680,
      "ĠÄĲÄ©a": 2681,
      "ĠThuáºŃn": 2682,
      "ĠTÃŃnh": 2683,
      "ĠnghiÃªm": 2684,
      "35": 2685,
      "ĠWil": 2686,
      "unt": 2687,
      "Ġtai": 2688,
      "196": 2689,
      "ĠÄĳe": 2690,
      "ĠTe": 2691,
      "Ġtrá»¯": 2692,
      "ĠIr": 2693,
      "Ġtan": 2694,
      "ĠsÄĥn": 2695,
      "rop": 2696,
      "ĠhÃºt": 2697,
      "á»«a": 2698,
      "ĠPaul": 2699,
      "ĠSing": 2700,
      "Ġthua": 2701,
      "yle": 2702,
      "ĠMa": 2703,
      "ĠDan": 2704,
      "Ġnháº¹": 2705,
      "ĠnháºŃt": 2706,
      "Ġthá»ı": 2707,
      "Ġcháº·n": 2708,
      "ĠThÆ°": 2709,
      "Ġe": 2710,
      "ker": 2711,
      "ve": 2712,
      "ĠhÃ¹ng": 2713,
      "ĠÄĳáº³ng": 2714,
      "ĠGl": 2715,
      "ĠTrÃ²": 2716,
      "ĠMáº¥t": 2717,
      "ĠSoc": 2718,
      "70": 2719,
      "ĠLat": 2720,
      "kra": 2721,
      "ĠbÃ©": 2722,
      "Ġly": 2723,
      "Ġgame": 2724,
      "Ġdá»įa": 2725,
      "bert": 2726,
      "anth": 2727,
      "ĠÄĲiá»ĥn": 2728,
      "ĠCor": 2729,
      "ĠÄĳoÃ¡n": 2730,
      "Nh": 2731,
      "ĠBáº£ng": 2732,
      "90": 2733,
      "site": 2734,
      "ĠTrá»ĭnh": 2735,
      "ĠIII": 2736,
      "ĠGo": 2737,
      "ĠMi": 2738,
      "ĠÄĲáº§u": 2739,
      "ĠUSD": 2740,
      "ĠphÃ¡n": 2741,
      "ael": 2742,
      "ĠtÃ¡n": 2743,
      "ĠTháº§n": 2744,
      "ĠtrÃ¡nh": 2745,
      "ĠthÃ¡nh": 2746,
      "Ġláº«n": 2747,
      "ĠquÃª": 2748,
      "ĠMil": 2749,
      "Ġnghá»ī": 2750,
      "ĠbÃ¡nh": 2751,
      "Ġtráº¡i": 2752,
      "iana": 2753,
      "ĠthÃ¡c": 2754,
      "ĠNghá»ĭ": 2755,
      "ĠCáº£nh": 2756,
      "ĠVÃ²ng": 2757,
      "Ġhá»©": 2758,
      "ĠbáºŃt": 2759,
      "ence": 2760,
      "Ġquang": 2761,
      "Ġma": 2762,
      "ĠSÄ©": 2763,
      "ĠKiáº¿n": 2764,
      "ĠNháº¡c": 2765,
      "ĠTriá»ĩu": 2766,
      "Ġnghá»ģ": 2767,
      "Ġalign": 2768,
      "ĠPress": 2769,
      "ani": 2770,
      "Ġ60": 2771,
      "ĠIt": 2772,
      "Ġvong": 2773,
      "ĠnhÃ¡nh": 2774,
      "ĠmÃ³n": 2775,
      "47": 2776,
      "ww": 2777,
      "Ġpháº¡t": 2778,
      "ĠGen": 2779,
      "ĠÆ°u": 2780,
      "ĠHol": 2781,
      "erm": 2782,
      "Ġhá»įp": 2783,
      "Ġ+": 2784,
      "ĠLá»±c": 2785,
      "ĠWh": 2786,
      "ĠMor": 2787,
      "á»¯a": 2788,
      "Ġsáº¯p": 2789,
      "ero": 2790,
      "36": 2791,
      "ĠAt": 2792,
      "ĠMai": 2793,
      "onesia": 2794,
      "Ġnáº¯m": 2795,
      "hip": 2796,
      "Ġbá»ĳi": 2797,
      "ondon": 2798,
      "ĠPhilippines": 2799,
      "ĠYou": 2800,
      "Ġháº¥p": 2801,
      "rich": 2802,
      "ĠÄĳÃ¡p": 2803,
      "á»¯u": 2804,
      "Ġsoáº¡n": 2805,
      "38": 2806,
      "ĠBel": 2807,
      "ics": 2808,
      "ham": 2809,
      "tain": 2810,
      "oto": 2811,
      "Ġbáº¡c": 2812,
      "ĠFl": 2813,
      "ĠÄĳoáº¡t": 2814,
      "37": 2815,
      "ĠCuá»ĳi": 2816,
      "ĠUkra": 2817,
      "ons": 2818,
      "ĠMÃ´ng": 2819,
      "Ġ1989": 2820,
      "enz": 2821,
      "âĢĿ": 2822,
      "Ġáº©m": 2823,
      "39": 2824,
      "ubl": 2825,
      "ĠdÆ°á»¡ng": 2826,
      "Ġsp": 2827,
      "ĠThÃ¢n": 2828,
      "Æ°Æ¡i": 2829,
      "ĠLá»¥c": 2830,
      "ĠTok": 2831,
      "ĠThá»ĥ": 2832,
      "ĠLin": 2833,
      "Ġ1970": 2834,
      "ĠâĢľ": 2835,
      "ef": 2836,
      "Ġtrá»ĵng": 2837,
      "Ġcá»ı": 2838,
      "ĠNhÃ³m": 2839,
      "ĠSu": 2840,
      "ĠLá»ħ": 2841,
      "Ġláº½": 2842,
      "Ġcáº¥m": 2843,
      "inc": 2844,
      "ĠLou": 2845,
      "ois": 2846,
      "Ġ1975": 2847,
      "ĠTrÃªn": 2848,
      "ĠChÃºa": 2849,
      "ĠÄĳuá»ķi": 2850,
      "ĠRobert": 2851,
      "Ġthuyá»ģn": 2852,
      "Ġ1960": 2853,
      "ĠrÃłng": 2854,
      "ĠAll": 2855,
      "ĠKÃ´ng": 2856,
      "Ġlá»±a": 2857,
      "ĠkhÄĥn": 2858,
      "ĠTÃłi": 2859,
      "ĠChamp": 2860,
      "Ġâ": 2861,
      "ĠTáº¥n": 2862,
      "ĠlÆ°ng": 2863,
      "ĠThiáº¿t": 2864,
      "ĠSá»Ł": 2865,
      "ĠDiá»ħn": 2866,
      "Ġkhá»§ng": 2867,
      "ĠPhan": 2868,
      "ĠhoÃ¡": 2869,
      "ĠÄĲan": 2870,
      "ĠKho": 2871,
      "mar": 2872,
      "á»©t": 2873,
      "ush": 2874,
      "Ġngá»Ŀ": 2875,
      "ĠOn": 2876,
      "78": 2877,
      "Ġchá»¯a": 2878,
      "ĠPhá»ķ": 2879,
      "ĠÄĲoÃłn": 2880,
      "Ġ1988": 2881,
      "má»Ļt": 2882,
      "Ġgiáº¥y": 2883,
      "ĠmiÃªu": 2884,
      "Ġj": 2885,
      "Ġtá»ī": 2886,
      "ĠRáºŃp": 2887,
      "aint": 2888,
      "ĠHiáº¿n": 2889,
      "Ġcáº·p": 2890,
      "Ã©n": 2891,
      "ĠÄĲá»ĳi": 2892,
      "ved": 2893,
      "ĠTom": 2894,
      "Ġquyá»ĥn": 2895,
      "Ã³i": 2896,
      "ĠngÃ¢n": 2897,
      "Ġá»ĳng": 2898,
      "ors": 2899,
      "ĠLondon": 2900,
      "ĠEur": 2901,
      "ĠTruy": 2902,
      "der": 2903,
      "ĠdáºŃy": 2904,
      "áº·m": 2905,
      "ĠÄĳuÃ´i": 2906,
      "ĠhÃ´m": 2907,
      "ĠBill": 2908,
      "ĠlÆ°Æ¡ng": 2909,
      "ĠTÃ¡c": 2910,
      "ĠSw": 2911,
      "ĠLuáºŃt": 2912,
      "Ġsá»£": 2913,
      "ĠCam": 2914,
      "46": 2915,
      "ĠkhÃ¡n": 2916,
      "ander": 2917,
      "edia": 2918,
      "Ġchá»ĳi": 2919,
      "use": 2920,
      "ks": 2921,
      "ĠnghÄ©": 2922,
      "ĠÄĳá»¡": 2923,
      "Ġphá»©c": 2924,
      "ĠNghÄ©a": 2925,
      "Ġno": 2926,
      "ĠBang": 2927,
      "ĠxÆ°Æ¡ng": 2928,
      "ĠÃŃch": 2929,
      "ĠLÃ£": 2930,
      "ĠMart": 2931,
      "ĠEx": 2932,
      "Ġngang": 2933,
      "Ġbá»ģ": 2934,
      "Ġá»ķn": 2935,
      "ĠDavid": 2936,
      "58": 2937,
      "Ãºa": 2938,
      "orge": 2939,
      "ĠThÆ°á»Ŀng": 2940,
      "ĠÄĳá»ģn": 2941,
      "ke": 2942,
      "ĠchÃ¹a": 2943,
      "%.": 2944,
      "Ġná»Ĺ": 2945,
      "Ġcá»©ng": 2946,
      "go": 2947,
      "ĠkhÃ´": 2948,
      "ĠTruyá»ģn": 2949,
      "bon": 2950,
      "Ġi": 2951,
      "ĠIl": 2952,
      "NA": 2953,
      "NE": 2954,
      "Ġmiá»ħn": 2955,
      "ĠmÆ°a": 2956,
      "Ġcáº£ng": 2957,
      "ĠvÃµ": 2958,
      ".)": 2959,
      "ĠIndonesia": 2960,
      "itz": 2961,
      "Ġkhá»ıe": 2962,
      "ĠSá»Ń": 2963,
      "ĠAf": 2964,
      "49": 2965,
      "ĠHÆ°Æ¡ng": 2966,
      "ĠVal": 2967,
      "Ã¤": 2968,
      "ĠDá»±": 2969,
      "ĠAmerican": 2970,
      "ky": 2971,
      "ĠmÆ°á»Ŀi": 2972,
      "ĠgiÃ³": 2973,
      "sky": 2974,
      "Ġtháº©m": 2975,
      "ĠMag": 2976,
      "opter": 2977,
      "ĠtháºŃm": 2978,
      "ade": 2979,
      "af": 2980,
      "ĠWind": 2981,
      "Ġthiá»ĩt": 2982,
      "ĠHá»¯u": 2983,
      "ĠHuÃ¢n": 2984,
      "ows": 2985,
      "ĠtÃłn": 2986,
      "Ġac": 2987,
      "Ġfrom": 2988,
      "ĠtrÃº": 2989,
      "ĠDr": 2990,
      "Ġlui": 2991,
      "Ġgá»Ĺ": 2992,
      "33": 2993,
      "ĠkÃ¬": 2994,
      "Æ°á»£u": 2995,
      "ĠVen": 2996,
      "ĠWest": 2997,
      "ĠLÃł": 2998,
      "ä¸": 2999,
      "ĠChrist": 3000,
      "oz": 3001,
      "ĠCity": 3002,
      "55": 3003,
      "illa": 3004,
      "ĠTim": 3005,
      "Ġtá»Ŀ": 3006,
      "ool": 3007,
      "Ġquá»¹": 3008,
      "ĠUniversity": 3009,
      "Ġcháº¥m": 3010,
      "ĠvÄ©": 3011,
      "Ġpl": 3012,
      "eon": 3013,
      "Ġnhá»ĭ": 3014,
      "á»³nh": 3015,
      "Ġgiáº£ng": 3016,
      "ĠCung": 3017,
      "ĠCÃºp": 3018,
      "ĠGiao": 3019,
      "ĠQuÃ½": 3020,
      "ĠbÃ¡": 3021,
      "ove": 3022,
      "ĠSup": 3023,
      "ĠBal": 3024,
      "Ġtáº¡m": 3025,
      "Ġáº©n": 3026,
      "ĠRich": 3027,
      "Ġhoang": 3028,
      "ĠBÃ¡": 3029,
      "ula": 3030,
      "ĠÄĲÃł": 3031,
      "ĠCÃ¹ng": 3032,
      "ĠSim": 3033,
      "ĠÄĳau": 3034,
      "ĠvÆ°á»Ŀn": 3035,
      "ĠÅ": 3036,
      "Ġuá»ĳng": 3037,
      "ĠSÃłi": 3038,
      "ĠlÆ°á»Ľi": 3039,
      "ĠZe": 3040,
      "ony": 3041,
      "ĠCap": 3042,
      "á»ıng": 3043,
      "á»Ľp": 3044,
      "ram": 3045,
      "St": 3046,
      "ĠtrÃ²n": 3047,
      "Ġlan": 3048,
      "ustr": 3049,
      "ĠÄĳá»ĩ": 3050,
      "Ġmá»±c": 3051,
      "ake": 3052,
      "44": 3053,
      "Ġkg": 3054,
      "ĠFranc": 3055,
      "ĠsÃ¡p": 3056,
      "ĠLy": 3057,
      "ĠArg": 3058,
      "ĠSao": 3059,
      "raph": 3060,
      "alis": 3061,
      "ĠcÃ¢n": 3062,
      "reat": 3063,
      "ĠHist": 3064,
      "Ġ1986": 3065,
      "ea": 3066,
      "ĠTÆ°Æ¡ng": 3067,
      "ĠCho": 3068,
      "ĠVÃŃ": 3069,
      "ĠTuyÃªn": 3070,
      "ĠvÃº": 3071,
      "asc": 3072,
      "á»ĳm": 3073,
      "osh": 3074,
      "ĠHoÃłn": 3075,
      "ĠRh": 3076,
      "Ġtrá»ĳn": 3077,
      "ox": 3078,
      "ĠgÃ³c": 3079,
      "ĠHung": 3080,
      "ision": 3081,
      "ĠSant": 3082,
      "ĠgÃł": 3083,
      "Ġhiáº¿n": 3084,
      "Ġes": 3085,
      "ĠnÃ³ng": 3086,
      "nay": 3087,
      "by": 3088,
      "ĠtÃ¹y": 3089,
      "li": 3090,
      "ĠvuÃ´ng": 3091,
      "wa": 3092,
      "ĠJames": 3093,
      "enia": 3094,
      "Ġtá»ĩ": 3095,
      "err": 3096,
      "Ġmáº½": 3097,
      "inn": 3098,
      "ĠNgoáº¡i": 3099,
      "ĠBur": 3100,
      "ĠtáºŃn": 3101,
      "ĠHáº§u": 3102,
      "Ġga": 3103,
      "Ġcá»¥c": 3104,
      "ĠmÅ©i": 3105,
      "ĠNhÆ°": 3106,
      "its": 3107,
      "ĠMont": 3108,
      "Ġtia": 3109,
      "ĠMos": 3110,
      "ais": 3111,
      "ja": 3112,
      "ĠIU": 3113,
      "ĠLá»Ļc": 3114,
      "ĠLÃło": 3115,
      "Ġgen": 3116,
      "ĠnÃ©m": 3117,
      "ĠdÃ£y": 3118,
      "ĠTor": 3119,
      "ĠSong": 3120,
      "ĠchÃ©p": 3121,
      "Ġlong": 3122,
      "ope": 3123,
      "esh": 3124,
      "Ġlá»Ĺi": 3125,
      "raz": 3126,
      "Ġtrá»©ng": 3127,
      "ĠrÃ£i": 3128,
      "ĠGÃ²n": 3129,
      "ĠSÃ´ng": 3130,
      "ĠSouth": 3131,
      "Æ°á»Ľp": 3132,
      "Ġbá»¥ng": 3133,
      "Ġå": 3134,
      "ĠngÅ©": 3135,
      "ĠLouis": 3136,
      "ĠcÆ¡n": 3137,
      "âĢĻ": 3138,
      "Ġvá»£t": 3139,
      "Ã¨m": 3140,
      "ĠrÆ°á»£u": 3141,
      "ĠDon": 3142,
      "ID": 3143,
      "osa": 3144,
      "Ġkháº¥u": 3145,
      "Ðº": 3146,
      "ĠTáº¥t": 3147,
      "ĠhÆ°": 3148,
      "ĠWe": 3149,
      "34": 3150,
      "ĠToÃłn": 3151,
      "ĠThÆ°Æ¡ng": 3152,
      "Ġ80": 3153,
      "ĠCÅ©ng": 3154,
      "ĠBrow": 3155,
      "Ġlá»ĳi": 3156,
      "ĠBiÃªn": 3157,
      "Ġ1987": 3158,
      "gi": 3159,
      "ila": 3160,
      "aki": 3161,
      "ĠList": 3162,
      "ĠtrÄĥm": 3163,
      "aka": 3164,
      "Ġhá»ķ": 3165,
      "lo": 3166,
      "anc": 3167,
      "ĠBen": 3168,
      "ato": 3169,
      "PL": 3170,
      "Ġ35": 3171,
      "ĠTur": 3172,
      "ĠThá»©": 3173,
      "ĠVol": 3174,
      "ire": 3175,
      "Ġgiá»įng": 3176,
      "ĠGhi": 3177,
      "ĠUkraina": 3178,
      "Ġtrá»ĳng": 3179,
      "els": 3180,
      "ĠTáº§n": 3181,
      "ĠÄĲÆ¡n": 3182,
      "omb": 3183,
      "Ġtá»ķn": 3184,
      "ova": 3185,
      "ball": 3186,
      "Ġtáº£ng": 3187,
      "yst": 3188,
      "AR": 3189,
      "ota": 3190,
      "akh": 3191,
      "Ġhá»ıa": 3192,
      "ĠVÃµ": 3193,
      "Ġwith": 3194,
      "75": 3195,
      "Ġthá»ıa": 3196,
      "32": 3197,
      "ĠViÃªn": 3198,
      "ĠMas": 3199,
      "ĠLai": 3200,
      "ĠGeorge": 3201,
      "Ġbáº£y": 3202,
      "ĠSpecies": 3203,
      "da": 3204,
      "con": 3205,
      "Ġ1985": 3206,
      "ĠCÃ¡t": 3207,
      "Ġcan": 3208,
      "Ġha": 3209,
      "Ġmá»ĩnh": 3210,
      "ĠFor": 3211,
      "oria": 3212,
      "rael": 3213,
      "ĠÃĤm": 3214,
      "Ġváº½": 3215,
      "ĠNgá»¥y": 3216,
      "Ġ1944": 3217,
      "ĠJack": 3218,
      "ĠThom": 3219,
      "ater": 3220,
      "ĠPhiÃªn": 3221,
      "ĠkÃ©m": 3222,
      "ori": 3223,
      "mp": 3224,
      "Ġbiá»ĩn": 3225,
      "Ġchinh": 3226,
      "Ġcháº¯c": 3227,
      "Ġvá»ı": 3228,
      "Ġ70": 3229,
      "Ġnames": 3230,
      "aut": 3231,
      "Ġbáº¡o": 3232,
      "ings": 3233,
      "ĠLee": 3234,
      "ĠÄĳá»©c": 3235,
      "we": 3236,
      "ĠVÃ¹ng": 3237,
      "ĠdÃły": 3238,
      "Qu": 3239,
      "ĠdÃµi": 3240,
      "ĠTiáº¿ng": 3241,
      "ĠVi": 3242,
      "ĠOs": 3243,
      "Ġthuáº¿": 3244,
      "ĠTrá»įng": 3245,
      "Ġváº»": 3246,
      "ze": 3247,
      "Ġvá»ĭnh": 3248,
      "Ġphá»ıng": 3249,
      "ple": 3250,
      "rad": 3251,
      "ashi": 3252,
      "ĠArt": 3253,
      "ĠtÆ°á»Ŀng": 3254,
      "oe": 3255,
      "olved": 3256,
      "ĠVinh": 3257,
      "Ġhá»ĵng": 3258,
      "ĠIUCN": 3259,
      "BC": 3260,
      "ĠNguá»ĵn": 3261,
      "ĠRec": 3262,
      "ĠGal": 3263,
      "bl": 3264,
      "Ġ180": 3265,
      "ĠRD": 3266,
      "\")": 3267,
      "Ġpha": 3268,
      "AS": 3269,
      "ĠVer": 3270,
      "ĠBáº¡ch": 3271,
      "Ġvá»¡": 3272,
      "ĠEng": 3273,
      "enc": 3274,
      "resolved": 3275,
      "ĠUnresolved": 3276,
      "Ġtáº¥m": 3277,
      "Ġsa": 3278,
      "ĠÄĳÃ¡m": 3279,
      "Ġtri": 3280,
      "á»«u": 3281,
      "uchia": 3282,
      "Ġcam": 3283,
      "ĠBay": 3284,
      "31": 3285,
      "ami": 3286,
      "ĠÄĲáº£o": 3287,
      "ĠOl": 3288,
      "ĠTÃło": 3289,
      "Ġngá»«ng": 3290,
      "Ġngá»įt": 3291,
      "elle": 3292,
      "Ġtim": 3293,
      "Ġdáº·m": 3294,
      "ĠxÆ°a": 3295,
      "ĠSaint": 3296,
      "Ġcom": 3297,
      "ĠÄĳá»±c": 3298,
      "Ġviá»ħn": 3299,
      "Ġmong": 3300,
      "Ġláº¡nh": 3301,
      "ĠVÃ´": 3302,
      "olf": 3303,
      "ĠKr": 3304,
      "Ġ90": 3305,
      "ĠWeb": 3306,
      "ha": 3307,
      "ĠGrand": 3308,
      "ĠMichael": 3309,
      "Ġ(\"": 3310,
      "Ġnguyá»ĩn": 3311,
      "ations": 3312,
      "Ġ1979": 3313,
      "Ġ1981": 3314,
      "ĠÄĳiá»ĩu": 3315,
      "ĠchÃ¡u": 3316,
      "Ġninh": 3317,
      "ates": 3318,
      "Ġ1950": 3319,
      "ĠGer": 3320,
      "air": 3321,
      "ield": 3322,
      "to": 3323,
      "ĠStr": 3324,
      "ĠMet": 3325,
      "Å«": 3326,
      "eph": 3327,
      "Ġ1943": 3328,
      "aland": 3329,
      "ĠGro": 3330,
      "any": 3331,
      "ĠLi": 3332,
      "nam": 3333,
      "ĠDis": 3334,
      "Ġ1942": 3335,
      "ĠIsrael": 3336,
      "Ġvon": 3337,
      "åħ": 3338,
      "ĠWindows": 3339,
      "ĠCáº£": 3340,
      "Ġmáº¡c": 3341,
      "ĠNob": 3342,
      "ĠCharles": 3343,
      "Æ°á»Ľm": 3344,
      "Ġsh": 3345,
      "99": 3346,
      "iew": 3347,
      "ĠUr": 3348,
      "ĠArm": 3349,
      "Ġrá»ĳi": 3350,
      "ĠnÃ¢u": 3351,
      "Ġphe": 3352,
      "ĠÄĳá»©a": 3353,
      "Ġ1982": 3354,
      "ĠÄĳá»ĵn": 3355,
      "ĠPhÆ°á»Ľc": 3356,
      "ĠMel": 3357,
      "ĠLáº¡c": 3358,
      "ĠEnter": 3359,
      "Ġ!": 3360,
      "ĠPan": 3361,
      "Ġ1984": 3362,
      "aysia": 3363,
      "atab": 3364,
      "Ġcáº¥t": 3365,
      "Ġel": 3366,
      "ĠCampuchia": 3367,
      "42": 3368,
      "Ġráº¯n": 3369,
      "iÄ": 3370,
      "ĠTo": 3371,
      "ĠDuy": 3372,
      "Ġmáº¯c": 3373,
      "mann": 3374,
      "Ġvinh": 3375,
      "Ð»": 3376,
      "ened": 3377,
      "ides": 3378,
      "Ġhiáº¿m": 3379,
      "iger": 3380,
      "yria": 3381,
      "ĠsÃ³t": 3382,
      "ĠIreland": 3383,
      "ĠCO": 3384,
      "III": 3385,
      "\"|": 3386,
      "Ġox": 3387,
      "ody": 3388,
      "ĠTex": 3389,
      "ĠlÃ´i": 3390,
      "Ġ1940": 3391,
      "41": 3392,
      "ĠMic": 3393,
      "Ġcháº¡m": 3394,
      "ĠchÃ¡y": 3395,
      "ĠVir": 3396,
      "anda": 3397,
      "Ġchuá»Ĺi": 3398,
      "eng": 3399,
      "ĠXuyÃªn": 3400,
      "ĠVá»ĭ": 3401,
      "ĠhÃł": 3402,
      "ĠmÃ¡i": 3403,
      "ĠStar": 3404,
      "85": 3405,
      "Ġnháº£y": 3406,
      "Ãªnh": 3407,
      "Ġkhá»ķ": 3408,
      "ther": 3409,
      "aus": 3410,
      "ps": 3411,
      "gin": 3412,
      "ĠChung": 3413,
      "ĠPhá»¥": 3414,
      "Ġ45": 3415,
      "ĠtÃ¡m": 3416,
      "ops": 3417,
      "iver": 3418,
      "ĠsÃ³c": 3419,
      "entina": 3420,
      "Ġdá»©t": 3421,
      "ĠTháº¡ch": 3422,
      "ĠChampions": 3423,
      "ife": 3424,
      "ĠgiÃłu": 3425,
      "ĠMer": 3426,
      "ĠShi": 3427,
      "ury": 3428,
      "ĠMalaysia": 3429,
      "ĠkhÃ¡m": 3430,
      "å¤": 3431,
      "ets": 3432,
      "Ġam": 3433,
      "ĠBol": 3434,
      "Al": 3435,
      "ĠMá»¥c": 3436,
      "Ġchá»Ł": 3437,
      "ĠMik": 3438,
      "iá»ħu": 3439,
      "ĠkiÃªm": 3440,
      "odes": 3441,
      "ba": 3442,
      "Ġnháº¯c": 3443,
      "ĠHenry": 3444,
      "ĠAss": 3445,
      "une": 3446,
      "erson": 3447,
      "ĠAv": 3448,
      "In": 3449,
      "ĠMex": 3450,
      "atabase": 3451,
      "86": 3452,
      "cu": 3453,
      "ĠSar": 3454,
      "ĠSÃ¡ch": 3455,
      "ĠPark": 3456,
      "ali": 3457,
      "pr": 3458,
      "Ã©c": 3459,
      "Ġ:": 3460,
      "ĠNorth": 3461,
      "ĠBáº±ng": 3462,
      "me": 3463,
      "ĠcÃ£i": 3464,
      "ome": 3465,
      "ĠGar": 3466,
      "ĠHÃłng": 3467,
      "//": 3468,
      "ĠSeo": 3469,
      "ĠTV": 3470,
      "iáº¿c": 3471,
      "76": 3472,
      "Ġ1983": 3473,
      "ĠLuÃ¢n": 3474,
      "ger": 3475,
      "ĠÄĳá»£t": 3476,
      "center": 3477,
      "ube": 3478,
      "ĠkhÆ¡i": 3479,
      "43": 3480,
      "Ġthiá»ĥu": 3481,
      "Ġhá»©ng": 3482,
      "Ġdá»«ng": 3483,
      "ĠÄĳá»ĳt": 3484,
      "ĠÃ¡m": 3485,
      "ĠScot": 3486,
      "ĠlÃ¡i": 3487,
      "Ġcá»ĳt": 3488,
      "ĠdÃłng": 3489,
      "ĠTop": 3490,
      "Æ°á»£n": 3491,
      "á»¥i": 3492,
      "iga": 3493,
      "ĠhÃ´": 3494,
      "ĠkhÃ¡i": 3495,
      "lad": 3496,
      "oma": 3497,
      "ĠAngel": 3498,
      "ĠUE": 3499,
      "no": 3500,
      "otball": 3501,
      "ceae": 3502,
      "ĠbuÃ´n": 3503,
      "://": 3504,
      "ĠMáº¡ch": 3505,
      "ĠTÃ¬nh": 3506,
      "Ġwebsite": 3507,
      "yan": 3508,
      "ĠQuáº£n": 3509,
      "ĠHiáº¿u": 3510,
      "ĠTrÆ°á»Łng": 3511,
      "Ġlá»µ": 3512,
      "ĠTiÃªu": 3513,
      "ole": 3514,
      "ci": 3515,
      "ĠNgÃ¢n": 3516,
      "ĠFlor": 3517,
      "ĠBlack": 3518,
      "oon": 3519,
      "ĠBiá»ĥn": 3520,
      "ĠMusic": 3521,
      "ĠFri": 3522,
      "ava": 3523,
      "ĠTak": 3524,
      "ric": 3525,
      "ĠMÃ´i": 3526,
      "Ġkia": 3527,
      "Ġcháº·t": 3528,
      "Ġtá»±a": 3529,
      "Ġet": 3530,
      "ĠCá»Ń": 3531,
      "ĠMu": 3532,
      "Ġcá»Ļt": 3533,
      "ĠMá»Ĺi": 3534,
      "Ġgu": 3535,
      "oshi": 3536,
      "ĠchÄĥm": 3537,
      "ĠThá»į": 3538,
      "Ġex": 3539,
      "Ġ1978": 3540,
      "ĠdÃłn": 3541,
      "eder": 3542,
      "ower": 3543,
      "za": 3544,
      "ĠMÃ´": 3545,
      "ĠSuper": 3546,
      "Ġdes": 3547,
      "Ġ1976": 3548,
      "įa": 3549,
      "ãĢ": 3550,
      "ĠThreat": 3551,
      "ĠNháº¥t": 3552,
      "Ġed": 3553,
      "Ġvan": 3554,
      "ook": 3555,
      "ĠÄĳÃ²i": 3556,
      "Kh": 3557,
      "ĠkÃ¨m": 3558,
      "ĠTokyo": 3559,
      "ĠTrá»ĭ": 3560,
      "board": 3561,
      "Ġ1973": 3562,
      "nes": 3563,
      "Ġ1968": 3564,
      "Ġ1941": 3565,
      "ĠRichard": 3566,
      "ĠCent": 3567,
      "Ġ1930": 3568,
      "áº¹n": 3569,
      "ĠAustr": 3570,
      "Ġtriáº¿t": 3571,
      "ild": 3572,
      "Ġranh": 3573,
      "Ġhu": 3574,
      "Ġcháº¯n": 3575,
      "ĠFrank": 3576,
      "ĠLang": 3577,
      "ĠMod": 3578,
      "Ġar": 3579,
      "ĠKit": 3580,
      "ĠOp": 3581,
      "ĠXI": 3582,
      "Ġ36": 3583,
      "ago": 3584,
      "Ġtáº§n": 3585,
      "apore": 3586,
      "ĠSol": 3587,
      "ĠAnt": 3588,
      "Ġtháº¡ch": 3589,
      "Ġsáº»": 3590,
      "ĠcÃº": 3591,
      "Ġ1972": 3592,
      "56": 3593,
      "ĠThreatened": 3594,
      "SE": 3595,
      "ĠÃ¡c": 3596,
      "ĠChim": 3597,
      "Ġgiam": 3598,
      "An": 3599,
      "ĠlÆ°á»¡ng": 3600,
      "uba": 3601,
      "ĠcÆ°á»Ľp": 3602,
      "ĠTuáº¥n": 3603,
      "ĠStud": 3604,
      "ĠÄĲÃ´n": 3605,
      "ĠLÃºc": 3606,
      "uki": 3607,
      "iano": 3608,
      "che": 3609,
      "ĠHel": 3610,
      "ĠDel": 3611,
      "Ġ2023": 3612,
      "Ġtá»įa": 3613,
      "ĠNghiÃªn": 3614,
      "ĠchÃ¬m": 3615,
      "roc": 3616,
      "ĠtiÃªm": 3617,
      "ĠOff": 3618,
      "Ã¬a": 3619,
      "ĠMexico": 3620,
      "Ġlang": 3621,
      "uáº¥t": 3622,
      "Ġtháº£m": 3623,
      "ĠZealand": 3624,
      "ĠtrÃºng": 3625,
      "ĠVideo": 3626,
      "ux": 3627,
      "Ġphu": 3628,
      "ĠHaw": 3629,
      "rey": 3630,
      "¯ng": 3631,
      "eta": 3632,
      "ĠPat": 3633,
      "Ġláº»": 3634,
      "ĠLiÃªu": 3635,
      "ĠJose": 3636,
      "Ġngá»ĵi": 3637,
      "ĠLÃ£nh": 3638,
      "ĠVÃł": 3639,
      "ĠMark": 3640,
      "ĠCha": 3641,
      "ĠBÃªn": 3642,
      "aud": 3643,
      "ĠBá»ī": 3644,
      "gro": 3645,
      "ĠÄĲinh": 3646,
      "Ġthai": 3647,
      "ĠsÃłng": 3648,
      "ĠthuÃª": 3649,
      "ĠÄĳÃ³n": 3650,
      "ĠKá»¹": 3651,
      "Ġ1946": 3652,
      "ĠxÆ°ng": 3653,
      "ĠtÃ´ng": 3654,
      "ĠTexas": 3655,
      "ĠdÆ°": 3656,
      "59": 3657,
      "ren": 3658,
      "ĠQuyáº¿t": 3659,
      "OS": 3660,
      "Ġmay": 3661,
      "Ġcá»«u": 3662,
      "IS": 3663,
      "ink": 3664,
      "ĠUEFA": 3665,
      "ij": 3666,
      "ih": 3667,
      "ĠSingapore": 3668,
      "89": 3669,
      "khÃ´ng": 3670,
      "ĠComp": 3671,
      "ĠArgentina": 3672,
      "77": 3673,
      "ĠCá»±u": 3674,
      "ĠTrá»Ŀi": 3675,
      "over": 3676,
      "Ġ#": 3677,
      "ĠSil": 3678,
      "ĠKhá»Łi": 3679,
      "ĠHÃ¹ng": 3680,
      "rod": 3681,
      "ĠTá»©": 3682,
      "ĠNo": 3683,
      "ĠkhuÃ´n": 3684,
      "ador": 3685,
      "ĠMaria": 3686,
      "ny": 3687,
      "ĠsÃ¡nh": 3688,
      "ling": 3689,
      "Ġz": 3690,
      "eld": 3691,
      "Ġcá»±": 3692,
      "Ġcar": 3693,
      "ĠHungary": 3694,
      "ĠnghÃ¨o": 3695,
      "ance": 3696,
      "ĠkÃªu": 3697,
      "âĢĭ": 3698,
      "ise": 3699,
      "ition": 3700,
      "ĠHuáº¿": 3701,
      "ĠLib": 3702,
      "Æ°á»¡i": 3703,
      "ĠbÆ°á»Ľm": 3704,
      "uct": 3705,
      "ĠFootball": 3706,
      "fer": 3707,
      "«ng": 3708,
      "ĠchÃŃn": 3709,
      "ĠÄĳáºŃu": 3710,
      "Ġvui": 3711,
      "ĠhÃ²n": 3712,
      "ĠVáºŃn": 3713,
      "align": 3714,
      "ĠChÃ¢n": 3715,
      "ĠcháºŃm": 3716,
      "eck": 3717,
      "Ã²m": 3718,
      "ĠCat": 3719,
      "be": 3720,
      "ĠNgay": 3721,
      "ĠEv": 3722,
      "tainment": 3723,
      "Ġas": 3724,
      "irus": 3725,
      "cÃ³": 3726,
      "ĠLuc": 3727,
      "form": 3728,
      "line": 3729,
      "ĠBul": 3730,
      "ĠHistory": 3731,
      "AT": 3732,
      "ĠKing": 3733,
      "itar": 3734,
      "ĠKáº¿": 3735,
      "Ġvá»Ł": 3736,
      "ĠtÃ´": 3737,
      "Ġtam": 3738,
      "ĠTour": 3739,
      "ĠFrancis": 3740,
      "Ġ1977": 3741,
      "Ġgai": 3742,
      "ĠQuyá»ģn": 3743,
      "ĠIran": 3744,
      "ĠKy": 3745,
      "01": 3746,
      "ĠOk": 3747,
      "ĠVict": 3748,
      "ĠEntertainment": 3749,
      "Ġ1974": 3750,
      "br": 3751,
      "Ġkháº³ng": 3752,
      "Ġkhuyáº¿n": 3753,
      "ement": 3754,
      "ĠbÃ¨n": 3755,
      "ĠWash": 3756,
      "CO": 3757,
      "ĠDung": 3758,
      "apol": 3759,
      "ga": 3760,
      "ĠDiv": 3761,
      "ĠBu": 3762,
      "57": 3763,
      "ĠTÄ©nh": 3764,
      ",...": 3765,
      "oad": 3766,
      "Ġhuyáº¿t": 3767,
      "Ġtháº£": 3768,
      "ĠNÃ´ng": 3769,
      "aga": 3770,
      "Ġcl": 3771,
      "Ġngá»§": 3772,
      "Ġhy": 3773,
      "ĠJul": 3774,
      "ĠMat": 3775,
      "06": 3776,
      "ĠDatabase": 3777,
      "ĠHot": 3778,
      "53": 3779,
      "iá»ĩng": 3780,
      "ĠMáº¡c": 3781,
      "ĠHuá»ĩ": 3782,
      "ĠPo": 3783,
      "%,": 3784,
      "Ġ1965": 3785,
      "ĠTan": 3786,
      "Ġæ": 3787,
      "Ġtháº£i": 3788,
      "Ġ1971": 3789,
      "Äģ": 3790,
      "ere": 3791,
      "ĠTw": 3792,
      "ĠMur": 3793,
      "ĠQuáº§n": 3794,
      "ĠHi": 3795,
      "Ġrad": 3796,
      "ĠâĢĭ": 3797,
      "ĠCarl": 3798,
      "icial": 3799,
      "ville": 3800,
      "ĠlÅ©": 3801,
      "å®": 3802,
      "wood": 3803,
      "ĠKá»ĥ": 3804,
      "ĠTÆ°á»Ľng": 3805,
      "ĠWashington": 3806,
      "ĠÃ©": 3807,
      "Ġsan": 3808,
      "ĠBÃ¡o": 3809,
      "ĠLam": 3810,
      "ĠJan": 3811,
      "á»ĩt": 3812,
      "88": 3813,
      "ĠphÃºc": 3814,
      "app": 3815,
      "chi": 3816,
      "ĠChiÃªu": 3817,
      "Ġcá»¡": 3818,
      "ĠAward": 3819,
      "ĠVá»¥": 3820,
      "Ġ1967": 3821,
      "Ġá»ĳc": 3822,
      "ĠâĢĭâĢĭ": 3823,
      "Ġká»ī": 3824,
      "eda": 3825,
      "ĠPeter": 3826,
      "ias": 3827,
      "yll": 3828,
      "do": 3829,
      "ĠthÃ¡ch": 3830,
      "ĠtÃ¢n": 3831,
      "ĠSlov": 3832,
      "ĠCÃ¢y": 3833,
      "ĠcÃ¡n": 3834,
      "ĠBos": 3835,
      "Ġ1954": 3836,
      "ĠngÆ°": 3837,
      "ĠNat": 3838,
      "oman": 3839,
      "score": 3840,
      "Ġmáº£nh": 3841,
      "ĠOx": 3842,
      "07": 3843,
      "Ġcáº£n": 3844,
      "ye": 3845,
      "Ġngá»įn": 3846,
      "Ġcá»¥m": 3847,
      "96": 3848,
      "2007": 3849,
      "Ġhá»Ĺn": 3850,
      "ngÆ°á»Ŀi": 3851,
      "ĠIV": 3852,
      "ĠAz": 3853,
      "Ġis": 3854,
      "Ġhoan": 3855,
      "ĠrÄĥng": 3856,
      "Ġlá»ĵng": 3857,
      "Ã§": 3858,
      "fl": 3859,
      "ĠPort": 3860,
      "back": 3861,
      "ĠGh": 3862,
      "Ġ500": 3863,
      "Ġnon": 3864,
      "ĠxuÃ¢n": 3865,
      "ridge": 3866,
      "Ġquen": 3867,
      "ĠQuy": 3868,
      "Ġlá»įt": 3869,
      "Ġ1969": 3870,
      "Ġcháº¥n": 3871,
      "ĠOly": 3872,
      "str": 3873,
      "ords": 3874,
      "ĠScotland": 3875,
      "ĠAlb": 3876,
      "ĠCáº§n": 3877,
      "ters": 3878,
      "ĠThuáºŃt": 3879,
      "Ġmáº¡n": 3880,
      "ĠGiai": 3881,
      "ĠMax": 3882,
      "chester": 3883,
      "âĢ¦": 3884,
      "ĠRad": 3885,
      "ĠCast": 3886,
      "ĠDar": 3887,
      "Ġser": 3888,
      "Ġche": 3889,
      "Ġhtt": 3890,
      "ĠÃºy": 3891,
      "CA": 3892,
      "ĠcÆ°Æ¡ng": 3893,
      "ĠThomas": 3894,
      "ĠKhang": 3895,
      "ĠÄĲa": 3896,
      "ĠEdward": 3897,
      "ĠDá»ĭch": 3898,
      "05": 3899,
      "ĠPlay": 3900,
      "Ġchá»©": 3901,
      "ĠKur": 3902,
      "stein": 3903,
      "Ġft": 3904,
      "ĠÄĳá»ĵi": 3905,
      "Ġmá»ĵi": 3906,
      "ĠJean": 3907,
      "Ġven": 3908,
      "Â°": 3909,
      "Ġlá»Ĺ": 3910,
      "ĠUl": 3911,
      "Ġchá»¥p": 3912,
      "ĠLÄĥng": 3913,
      "Ġváº¿t": 3914,
      "ĠLao": 3915,
      "Ġ32": 3916,
      "ology": 3917,
      "ĠNational": 3918,
      "ĠMiss": 3919,
      "ĠdÃ£": 3920,
      "Ġle": 3921,
      "ĠOlymp": 3922,
      "span": 3923,
      "icus": 3924,
      "ios": 3925,
      "áº±n": 3926,
      "cel": 3927,
      "Ġanime": 3928,
      "chn": 3929,
      "Ġmiá»ĩng": 3930,
      "Ġvá»¯ng": 3931,
      "Ġ1964": 3932,
      "Ġdel": 3933,
      "ump": 3934,
      "2010": 3935,
      "Ġsá»¯a": 3936,
      "Ġgáº¥p": 3937,
      "Ġngá»£i": 3938,
      "500": 3939,
      "ĠInternational": 3940,
      "ĠOtt": 3941,
      "Ġchá»£": 3942,
      "ĠTháº¯ng": 3943,
      "tÃªn": 3944,
      "ĠFI": 3945,
      "Ġdinh": 3946,
      "87": 3947,
      "ĠPubl": 3948,
      "he": 3949,
      "ĠkhÃŃch": 3950,
      "gar": 3951,
      "ĠJu": 3952,
      "ĠSum": 3953,
      "Ġ1963": 3954,
      "09": 3955,
      "ĠÄĲiá»ģn": 3956,
      "rew": 3957,
      "ĠHoÃłi": 3958,
      "ĠHan": 3959,
      "ıng": 3960,
      "ĠRo": 3961,
      "54": 3962,
      "ycl": 3963,
      "ĠBá»ĩnh": 3964,
      "Ġung": 3965,
      "way": 3966,
      "02": 3967,
      "ĠOne": 3968,
      "ĠÄĲá»Ĺ": 3969,
      "ĠBillboard": 3970,
      "ĠcÃł": 3971,
      "als": 3972,
      "ĠInternet": 3973,
      "ĠAk": 3974,
      "Ġngáº¡i": 3975,
      "ÅĦ": 3976,
      "Ġthang": 3977,
      "ĠColom": 3978,
      "Ġduyá»ĩt": 3979,
      "ĠHuáº¥n": 3980,
      "chá»¯": 3981,
      "ĠLove": 3982,
      "chen": 3983,
      "2006": 3984,
      "2008": 3985,
      "ream": 3986,
      "Ġkhung": 3987,
      "ĠtrÆ°Æ¡ng": 3988,
      "ĠTÃ´": 3989,
      "omer": 3990,
      "ĠBrit": 3991,
      "ĠSyria": 3992,
      "ĠthÃ©p": 3993,
      "off": 3994,
      "ĠComm": 3995,
      "08": 3996,
      "ĠSai": 3997,
      "ĠHáº¡m": 3998,
      "ĠTs": 3999,
      "ĠSiÃªu": 4000,
      "ĠCÃ¡i": 4001,
      "ground": 4002,
      "Ġtráº¡m": 4003,
      "âĢĶ": 4004,
      "Gi": 4005,
      "ĠMÃ©": 4006,
      "Ġ1966": 4007,
      "ĠTÃ¢m": 4008,
      "ĠSmith": 4009,
      "ĠDÃ¹": 4010,
      "ĠrÃ£": 4011,
      "uck": 4012,
      "itch": 4013,
      "ĠGiá»ĳng": 4014,
      "ĠMed": 4015,
      "tá»«": 4016,
      "Å¡": 4017,
      "ograph": 4018,
      "ĠTá»ģ": 4019,
      "ĠKam": 4020,
      "ĠÄĲáº·ng": 4021,
      "Ġ1962": 4022,
      "Ġváº¡n": 4023,
      "Le": 4024,
      "ĠÄĲá»ĩ": 4025,
      "Ġ1956": 4026,
      "Ġ1920": 4027,
      "ĠBor": 4028,
      "inus": 4029,
      "pha": 4030,
      "Ġthá»į": 4031,
      "Ġim": 4032,
      "100": 4033,
      "iy": 4034,
      "ĠLos": 4035,
      "ĠDÆ°á»Ľi": 4036,
      "ĠlÅ©ng": 4037,
      "ĠInter": 4038,
      "ria": 4039,
      "Ġmanga": 4040,
      "ĠHam": 4041,
      "ele": 4042,
      "cz": 4043,
      "ĠPak": 4044,
      "ĠnÃ£o": 4045,
      "ĠCD": 4046,
      "ĠCarol": 4047,
      "áº«m": 4048,
      "Ġhoáº£ng": 4049,
      "á»Ļp": 4050,
      "66": 4051,
      "ĠÂ°": 4052,
      "ĠFre": 4053,
      "Ġ300": 4054,
      "rat": 4055,
      "ĠBro": 4056,
      "inea": 4057,
      "Ġco": 4058,
      "trong": 4059,
      "ĠVenez": 4060,
      "ĠKháº¯c": 4061,
      "apan": 4062,
      "Ð²": 4063,
      "ilm": 4064,
      "Ġtráº§m": 4065,
      "xt": 4066,
      "Ġlá»įc": 4067,
      "Ġcanh": 4068,
      "ĠNic": 4069,
      "Ã±": 4070,
      "ĠmÃª": 4071,
      "ĠMÃ´n": 4072,
      "Ġháº¹p": 4073,
      "Ġstyle": 4074,
      "ĠKon": 4075,
      "Ġháº¯n": 4076,
      "lav": 4077,
      "ĠNik": 4078,
      "ĠCá»¥": 4079,
      "Ġká»µ": 4080,
      "Ġtháº§y": 4081,
      "ĠthÃ¡m": 4082,
      "Ġkhuáº©n": 4083,
      "ism": 4084,
      "ĠPe": 4085,
      "elt": 4086,
      "ĠMartin": 4087,
      "ĠsÆ°u": 4088,
      "ĠtÃ³c": 4089,
      "ito": 4090,
      "ĠKhoáº£ng": 4091,
      "able": 4092,
      "MS": 4093,
      "rie": 4094,
      "Ġ1947": 4095,
      "ode": 4096,
      "ese": 4097,
      "hay": 4098,
      "color": 4099,
      "ĠNghi": 4100,
      "áº¿ch": 4101,
      "ĠBiáº¿n": 4102,
      "ĠSur": 4103,
      "let": 4104,
      "Ġ59": 4105,
      "ĠSang": 4106,
      "red": 4107,
      "ĠViá»ħn": 4108,
      "79": 4109,
      "03": 4110,
      "AN": 4111,
      "ĠVá»ĩ": 4112,
      "Ġhiá»ĥn": 4113,
      "Ã¹n": 4114,
      "ĠBerlin": 4115,
      "ĠRes": 4116,
      "mm": 4117,
      "Ã¹y": 4118,
      "Ġ38": 4119,
      "Ġxáº¥u": 4120,
      "Ġ1939": 4121,
      "ĠOb": 4122,
      "ĠSi": 4123,
      "Ġor": 4124,
      "Ġláº¡": 4125,
      "ĠsÆ¡n": 4126,
      "Ġkhá»ķng": 4127,
      "rick": 4128,
      "Ġgháº¿": 4129,
      "ĠCuba": 4130,
      "ĠSáº£n": 4131,
      "ĠthÃ¡o": 4132,
      "ĠChÃ¡nh": 4133,
      "ĠBÃ¹i": 4134,
      "ĠDie": 4135,
      "iÄĩ": 4136,
      "den": 4137,
      "ĠDes": 4138,
      "ĠÄĳáº»": 4139,
      "Ġlá»£n": 4140,
      "ĠBi": 4141,
      "ank": 4142,
      "ĠMah": 4143,
      "Ġ1955": 4144,
      "Ġlá»ĵ": 4145,
      "ĠphÃº": 4146,
      "hr": 4147,
      "ĠnÃ²ng": 4148,
      "ĠgiÃ¡n": 4149,
      "pe": 4150,
      "Ġvoi": 4151,
      "Ġká»ĭ": 4152,
      "ĠXÆ°Æ¡ng": 4153,
      "emb": 4154,
      "Ã¹m": 4155,
      "gu": 4156,
      "Ġlá»ıng": 4157,
      "ĠMáº¹": 4158,
      "Ġ(;": 4159,
      "ĠKen": 4160,
      "ĠHáº¡t": 4161,
      "äº": 4162,
      "52": 4163,
      "2011": 4164,
      "Ġhá»Ļp": 4165,
      "ĠAth": 4166,
      "cher": 4167,
      "pa": 4168,
      "ĠTháº¡nh": 4169,
      "tein": 4170,
      "ĠgiÃł": 4171,
      "Ġthuáº§n": 4172,
      "ĠSk": 4173,
      "2009": 4174,
      "04": 4175,
      "Ġtop": 4176,
      "ĠSmall": 4177,
      "isc": 4178,
      "port": 4179,
      "ĠClub": 4180,
      "ĠThÆ¡": 4181,
      "Ġ1961": 4182,
      "Ġsáº¡ch": 4183,
      "ĠMay": 4184,
      "Ġ1958": 4185,
      "FC": 4186,
      "Ġ)": 4187,
      "my": 4188,
      "ĠdÃ¢m": 4189,
      "Ġkhen": 4190,
      "een": 4191,
      "ĠWars": 4192,
      "Ar": 4193,
      "Ġnháº¥n": 4194,
      "''": 4195,
      "ck": 4196,
      "oft": 4197,
      "ĠLá»£i": 4198,
      "BS": 4199,
      "ĠcÃ¡t": 4200,
      "ĠngÃłn": 4201,
      "Ġsá»¥p": 4202,
      "2005": 4203,
      "Ġláº¯p": 4204,
      "ĠQuÃ¡": 4205,
      "ello": 4206,
      "ĠEle": 4207,
      "su": 4208,
      "ĠRev": 4209,
      "aris": 4210,
      "Ġmuá»ĳi": 4211,
      "ĠNav": 4212,
      "ĠGeorg": 4213,
      "ĠPrem": 4214,
      "ette": 4215,
      "Ġdao": 4216,
      "ĠSom": 4217,
      "ĠThiá»ĩu": 4218,
      "ĠRock": 4219,
      "ĠPi": 4220,
      "ĠSeoul": 4221,
      "ĠPhá»§": 4222,
      "Mar": 4223,
      "Ġ37": 4224,
      "ĠCos": 4225,
      "ela": 4226,
      "ĠEst": 4227,
      "gr": 4228,
      "Ġniá»ģm": 4229,
      "ated": 4230,
      "ĠNÆ°á»Ľc": 4231,
      "Ġáº£o": 4232,
      "ĠShin": 4233,
      "uri": 4234,
      "Ġtháº»": 4235,
      "ĠRos": 4236,
      "ĠbÃ¨": 4237,
      "uela": 4238,
      "Ñĥ": 4239,
      "ĠColombia": 4240,
      "ĠmÆ¡": 4241,
      "ĠXV": 4242,
      "ĠÄĳiá»ĩp": 4243,
      "ĠCro": 4244,
      "ĠKaz": 4245,
      "ĠdÆ°á»Ŀng": 4246,
      "alin": 4247,
      "gen": 4248,
      "ĠÎ": 4249,
      "Cl": 4250,
      "ĠCáº£ng": 4251,
      "CP": 4252,
      "ĠhÃ¢m": 4253,
      "Ġtiá»ģm": 4254,
      "ĠKn": 4255,
      "ĠRam": 4256,
      "ĠManchester": 4257,
      "áºµng": 4258,
      "Ġoxy": 4259,
      "ĠnghÃ¬n": 4260,
      "urn": 4261,
      "atia": 4262,
      "ĠDom": 4263,
      "Ġder": 4264,
      "Ġsá»£i": 4265,
      "uth": 4266,
      "ĠTháºŃp": 4267,
      "ĠNapol": 4268,
      "67": 4269,
      "Ġ48": 4270,
      "ĠVirgin": 4271,
      "ĠÄĲÃ³": 4272,
      "ĠâĨ": 4273,
      "ĠÆ": 4274,
      "ĠÃ©p": 4275,
      "ĠTiáº¿p": 4276,
      "Ġchuá»Ļt": 4277,
      "Ġxoay": 4278,
      "Ġá»©c": 4279,
      "ĠnÃ©t": 4280,
      "Ġbá»¥i": 4281,
      "ĠJPL": 4282,
      "98": 4283,
      "ĠNov": 4284,
      "ĠYo": 4285,
      "ĠThá»«a": 4286,
      "Ġdáº£i": 4287,
      "ĠÄĳáº§m": 4288,
      "ĠNgÅ©": 4289,
      "ilia": 4290,
      "Ġhá»ĵn": 4291,
      "95": 4292,
      "ĠTÆ°á»Ŀng": 4293,
      "ĠHuyá»ģn": 4294,
      "Ġthan": 4295,
      "Ġ1959": 4296,
      "of": 4297,
      "rit": 4298,
      "ĠHiá»ĩu": 4299,
      "ĠthoÃ¡i": 4300,
      "zh": 4301,
      "ado": 4302,
      "ï¼": 4303,
      "ough": 4304,
      "oni": 4305,
      "ĠxÃ¡m": 4306,
      "ĠhÃło": 4307,
      "umi": 4308,
      "umb": 4309,
      "Ġbá»Ļt": 4310,
      "mi": 4311,
      "ĠGir": 4312,
      "rov": 4313,
      "Ġnháº¡t": 4314,
      "ĠAlexander": 4315,
      "Ġngá»±c": 4316,
      "ĠWat": 4317,
      "2016": 4318,
      "Ġchá»Ŀ": 4319,
      "ĠCas": 4320,
      "ĠTown": 4321,
      "ui": 4322,
      "ĠReg": 4323,
      "ures": 4324,
      "ĠcÆ°á»Ľi": 4325,
      "aker": 4326,
      "ĠkhÃ´i": 4327,
      "Ġmai": 4328,
      "ĠAnton": 4329,
      "ĠLá»¯": 4330,
      "ĠAug": 4331,
      "ĠWales": 4332,
      "ĠTrinh": 4333,
      "ĠNgÃ´i": 4334,
      "gl": 4335,
      "Ġhttp": 4336,
      "ĠLáºŃp": 4337,
      "nÄĥm": 4338,
      "ĠÄĳáºŃp": 4339,
      "Ġtung": 4340,
      "ĠGreen": 4341,
      "ĠGiá»Ľi": 4342,
      "Ġ|}": 4343,
      "Ġ65": 4344,
      "ĠNobel": 4345,
      "amin": 4346,
      "ĠKá»·": 4347,
      "Ġbá»įc": 4348,
      "ĠdÃ¡ng": 4349,
      "92": 4350,
      "kin": 4351,
      "field": 4352,
      "Ġmá»įc": 4353,
      "ĠBraz": 4354,
      "97": 4355,
      "ĠNi": 4356,
      "çİ": 4357,
      "ĠmÃłng": 4358,
      "ĠPhá»¥c": 4359,
      "ster": 4360,
      "Ġrock": 4361,
      "ĠBoy": 4362,
      "ual": 4363,
      "ĠJun": 4364,
      "ĠviÃªm": 4365,
      "uke": 4366,
      "ĠRecords": 4367,
      "ĠArch": 4368,
      "ept": 4369,
      "ĠyÃªn": 4370,
      "ĠJoseph": 4371,
      "ĠÄĲÃ´i": 4372,
      "SS": 4373,
      "ĠTin": 4374,
      "inae": 4375,
      "ars": 4376,
      "Ã³w": 4377,
      "ema": 4378,
      "ĠNag": 4379,
      "por": 4380,
      "Ġ1957": 4381,
      "à¹": 4382,
      "ĠDivision": 4383,
      "2015": 4384,
      "ĠâĨĴ": 4385,
      "ĠIm": 4386,
      "ĠtrÃ´ng": 4387,
      "ator": 4388,
      "ider": 4389,
      "ĠTrÃł": 4390,
      "±ng": 4391,
      "ĠGa": 4392,
      "ĠNáºµng": 4393,
      "hoáº·c": 4394,
      "ĠBook": 4395,
      "Ġhang": 4396,
      "ĠLÃłng": 4397,
      "ĠlÃ£m": 4398,
      "ĠÄĳÃłm": 4399,
      "68": 4400,
      "2013": 4401,
      "ĠTer": 4402,
      "Ġháº§m": 4403,
      "olo": 4404,
      "ĠSun": 4405,
      "ĠGame": 4406,
      "raft": 4407,
      "ense": 4408,
      "Ġbia": 4409,
      "ĠPap": 4410,
      "ĠKan": 4411,
      "ĠMosk": 4412,
      "á»µ": 4413,
      "ĠnhÆ°á»£ng": 4414,
      "ĠdÆ°á»£c": 4415,
      "ĠChiáº¿c": 4416,
      "ĠchÃºt": 4417,
      "Ġ33": 4418,
      "ĠRoy": 4419,
      "ĠmÃ¡t": 4420,
      "ĠTrÄĥng": 4421,
      "ior": 4422,
      "ĠPhÃ¹": 4423,
      "Ġthá»£": 4424,
      "51": 4425,
      "lÃł": 4426,
      "BT": 4427,
      "ĠBon": 4428,
      "Ġruá»Ļt": 4429,
      "Ġ1949": 4430,
      "Ġ<": 4431,
      "ĠFIFA": 4432,
      "Sh": 4433,
      "ique": 4434,
      "erb": 4435,
      "ĠBÃ³ng": 4436,
      "ĠStev": 4437,
      "2012": 4438,
      "Ġkhá»©": 4439,
      "DP": 4440,
      "inal": 4441,
      "2004": 4442,
      "ĠVan": 4443,
      "ĠmÃ¨o": 4444,
      "ĠSimon": 4445,
      "2014": 4446,
      "ĠPakistan": 4447,
      "ĠÄĲÄĥng": 4448,
      "aster": 4449,
      "Ġ(,": 4450,
      "ĠvÃ©": 4451,
      "xico": 4452,
      "åŃ": 4453,
      "ĠTai": 4454,
      "ĠTÃŃn": 4455,
      "ĠVÆ°á»Ŀn": 4456,
      "ĠMid": 4457,
      "ĠBrowser": 4458,
      "ĠJac": 4459,
      "2003": 4460,
      "Ġ1948": 4461,
      "ĠnhuáºŃn": 4462,
      "ngÃły": 4463,
      "ĠNhÃ¡nh": 4464,
      "ĠmÆ°á»£n": 4465,
      "yt": 4466,
      "Ġcol": 4467,
      "Body": 4468,
      "ĠNet": 4469,
      "ĠmÃ£n": 4470,
      "itan": 4471,
      "ital": 4472,
      "ĠJer": 4473,
      "ĠThÃ¡p": 4474,
      "ĠIv": 4475,
      "Ġtrá»Ļn": 4476,
      "Ġ1938": 4477,
      "ĠTar": 4478,
      "ĠTal": 4479,
      "Ġbáº¡ch": 4480,
      "ĠMass": 4481,
      "2001": 4482,
      "ĠFried": 4483,
      "Ġthiá»ĩp": 4484,
      "ĠColle": 4485,
      "ĠGuinea": 4486,
      "eter": 4487,
      "ĠTÃ¹ng": 4488,
      "ĠMill": 4489,
      "net": 4490,
      "ĠFar": 4491,
      "orro": 4492,
      "Ġpop": 4493,
      "Ġbá»įn": 4494,
      "ĠchÄĥn": 4495,
      "ĠBrazil": 4496,
      "2000": 4497,
      "ange": 4498,
      "Ġpháº«u": 4499,
      "sa": 4500,
      "ĠhoÃł": 4501,
      "ogle": 4502,
      "ĠHÃłm": 4503,
      "irst": 4504,
      "72": 4505,
      "ĠxÆ°á»Łng": 4506,
      "Ġbáº¥y": 4507,
      "ĠMang": 4508,
      "ĠMeg": 4509,
      "Ġáº¥p": 4510,
      "ĠGold": 4511,
      "ring": 4512,
      "raq": 4513,
      "ĠJo": 4514,
      "ĠtháºŃn": 4515,
      "ĠThi": 4516,
      "ĠBab": 4517,
      "ĠlÃ£ng": 4518,
      "ĠKitÃ´": 4519,
      "ĠlÄĥng": 4520,
      "ĠÄĳiá»ģn": 4521,
      "Ġpháº³ng": 4522,
      "ĠChiá»ģu": 4523,
      "ĠCamb": 4524,
      "Ġ1953": 4525,
      "ĠhÆ°u": 4526,
      "ĠCÃ²n": 4527,
      "ĠKarl": 4528,
      "ĠgiáºŃn": 4529,
      "tron": 4530,
      "rab": 4531,
      "á»ıa": 4532,
      "ĠLatinh": 4533,
      "Ġvirus": 4534,
      "elm": 4535,
      "TC": 4536,
      "ystem": 4537,
      "oda": 4538,
      "ĠAngeles": 4539,
      "Ġhyd": 4540,
      "ĠAustralia": 4541,
      "ĠBir": 4542,
      "ĠCháº¥p": 4543,
      "ĠVenezuela": 4544,
      "Ġmen": 4545,
      "ĠÄĳá»£i": 4546,
      "ĠMÃ©xico": 4547,
      "ĠQuáº£": 4548,
      "ĠMoskva": 4549,
      "ĠÃĹ": 4550,
      "ily": 4551,
      "ĠAnn": 4552,
      "Ñı": 4553,
      "ru": 4554,
      "ĠgiÃ¢y": 4555,
      "Ġdá»ĭp": 4556,
      "ĠcÃ´n": 4557,
      "ĠdÃ¢ng": 4558,
      "ĠYam": 4559,
      "ten": 4560,
      "ĠFA": 4561,
      "ĠNgÃ´n": 4562,
      "84": 4563,
      "bao": 4564,
      "ĠÄĳÃ¡y": 4565,
      "ĠHáº¡ng": 4566,
      "ĠJapan": 4567,
      "rak": 4568,
      "Ġsáº¡n": 4569,
      "ĠSÃ©c": 4570,
      "Ġpol": 4571,
      "ghan": 4572,
      "Ġuy": 4573,
      "Ġguitar": 4574,
      "ĠCÆ°Æ¡ng": 4575,
      "ĠMir": 4576,
      "ĠlÃ¢n": 4577,
      "ĠDev": 4578,
      "Ð´": 4579,
      "ĠghÃ©p": 4580,
      "ĠDÃ²ng": 4581,
      "ss": 4582,
      "ĠXuáº¥t": 4583,
      "ĠHit": 4584,
      "ĠSen": 4585,
      "background": 4586,
      "ave": 4587,
      "ĠPremier": 4588,
      "65": 4589,
      "á»Ļm": 4590,
      "ĠnÃ´": 4591,
      "ĠKe": 4592,
      "ourn": 4593,
      "ĠHal": 4594,
      "ĠDou": 4595,
      "ĠÄĲiá»ĥm": 4596,
      "Ġ1951": 4597,
      "ĠFu": 4598,
      "Ġháº¡nh": 4599,
      "Ġhá»ģ": 4600,
      "Ġ1936": 4601,
      "orth": 4602,
      "ĠÄĳÃ¨n": 4603,
      "ĠbÃºt": 4604,
      "ĠSocorro": 4605,
      "olia": 4606,
      "ĠtÄ©nh": 4607,
      "64": 4608,
      "IA": 4609,
      "ution": 4610,
      "62": 4611,
      "Ġnáº¥u": 4612,
      "ĠkhoÃ¡ng": 4613,
      "lish": 4614,
      "ĠÃ¡i": 4615,
      "ĠMá»Ļc": 4616,
      "ĠbÃ¹ng": 4617,
      "ĠBern": 4618,
      "ĠPop": 4619,
      "ĠPhÆ°á»Ŀng": 4620,
      "ts": 4621,
      "Ġ1952": 4622,
      "ĠMicros": 4623,
      "Ġtrinh": 4624,
      "ĠTÃ´i": 4625,
      "Ġhuyá»ģn": 4626,
      "scar": 4627,
      "Ġtuyáº¿t": 4628,
      "tá»©c": 4629,
      "ĠAtl": 4630,
      "Ġlá»¥": 4631,
      "91": 4632,
      "ĠmÆ°Æ¡i": 4633,
      "ĠngáºŃp": 4634,
      "ĠDoanh": 4635,
      "cl": 4636,
      "eri": 4637,
      "ĠBus": 4638,
      "agon": 4639,
      "ĠTel": 4640,
      "ĠKÃŃnh": 4641,
      "ĠdÃ²": 4642,
      "www": 4643,
      "aro": 4644,
      "ĠZh": 4645,
      "ĠAdam": 4646,
      "ĠThiá»ĩn": 4647,
      "Ġnáº¡p": 4648,
      "ĠAlexand": 4649,
      "ĠkhuyÃªn": 4650,
      "93": 4651,
      "Ġvang": 4652,
      "lines": 4653,
      "rian": 4654,
      "ĠAst": 4655,
      "ĠLev": 4656,
      "Ġbi": 4657,
      "ĠTuyáº¿n": 4658,
      "ĠIraq": 4659,
      "MA": 4660,
      "ĠTay": 4661,
      "ĠchÃłng": 4662,
      "Ġpp": 4663,
      "ni": 4664,
      "iation": 4665,
      "gon": 4666,
      "ĠLes": 4667,
      "VD": 4668,
      "ĠLÆ°á»£ng": 4669,
      "seud": 4670,
      "Ġmá»¹": 4671,
      "ific": 4672,
      "ĠLá»ĩ": 4673,
      "ĠchÃ´n": 4674,
      "ĠcÄĥng": 4675,
      "Ġsub": 4676,
      "à¤": 4677,
      "inder": 4678,
      "Ġ1937": 4679,
      "jan": 4680,
      "ĠláºŃt": 4681,
      "ĠxÃ³m": 4682,
      "Ġtráº§n": 4683,
      "ĠmÃ¢y": 4684,
      "iaceae": 4685,
      "ĠBá»ĭ": 4686,
      "cÃ¡c": 4687,
      "ĠRy": 4688,
      "VID": 4689,
      "ĠKiá»ĥm": 4690,
      "una": 4691,
      "ĠRep": 4692,
      "ume": 4693,
      "ĠLá»Ľp": 4694,
      "ĠDÅ©ng": 4695,
      "ĠLo": 4696,
      "ĠngÃ£": 4697,
      "ĠchÆ°": 4698,
      "Ġngá»±": 4699,
      "ĠHÆ°á»Ľng": 4700,
      "á»Ľt": 4701,
      "ĠBat": 4702,
      "ĠXáº¿p": 4703,
      "ĠtÆ°Æ¡i": 4704,
      "alt": 4705,
      "ugh": 4706,
      "TT": 4707,
      "ĠTáº¡ng": 4708,
      "ÃŃp": 4709,
      "cuador": 4710,
      "ction": 4711,
      "ĠBá»ĳ": 4712,
      "ery": 4713,
      "ĠlÃºa": 4714,
      "ĠMau": 4715,
      "ĠVáºŃt": 4716,
      "Ġláº·p": 4717,
      "94": 4718,
      "Ġná»Ĺi": 4719,
      "ĠHÆ¡n": 4720,
      "ĠJackson": 4721,
      "Ġcong": 4722,
      "Ġxong": 4723,
      "1999": 4724,
      "Ġgá»¡": 4725,
      "TA": 4726,
      "ĠQuá»³nh": 4727,
      "Ġsc": 4728,
      "eop": 4729,
      "ĠOfficial": 4730,
      "abeth": 4731,
      "arus": 4732,
      "--": 4733,
      "ÄĳÆ°á»£c": 4734,
      "ĠKiá»ģu": 4735,
      "ĠGoogle": 4736,
      "iki": 4737,
      "ĠTáº¿": 4738,
      "ban": 4739,
      "Ġé": 4740,
      "Ġdá»¡": 4741,
      "ĠÄĲá»įc": 4742,
      "á»Ĺng": 4743,
      "ĠnhÃ¬": 4744,
      "uma": 4745,
      "win": 4746,
      "Ġtreo": 4747,
      "ichi": 4748,
      "ĠLI": 4749,
      "ĠkÃŃn": 4750,
      "Ġ1918": 4751,
      "ĠBáº¥t": 4752,
      "ĠAirlines": 4753,
      "Ġcá»ķng": 4754,
      "won": 4755,
      "ĠCop": 4756,
      "ĠFlorida": 4757,
      "erg": 4758,
      "ĠCá»±c": 4759,
      "æľ": 4760,
      "ĠLoáº¡i": 4761,
      "ĠHoáº¡t": 4762,
      "ĠEcuador": 4763,
      "ĠnhÃ£n": 4764,
      "Trung": 4765,
      "Ġprotein": 4766,
      "ĠngÆ°á»¡ng": 4767,
      "ĠEp": 4768,
      "Ġnhá»ĭp": 4769,
      "ĠtuÃ¢n": 4770,
      "ĠOxford": 4771,
      "cus": 4772,
      "phor": 4773,
      "stan": 4774,
      "ĠKu": 4775,
      "hire": 4776,
      "Ġká»ĭp": 4777,
      "ĠStan": 4778,
      "ĠChile": 4779,
      "Ġ1935": 4780,
      "Ġbá»ĵi": 4781,
      "ĠXX": 4782,
      "ĠNiger": 4783,
      "ĠCai": 4784,
      "Ġ47": 4785,
      "Ġ*": 4786,
      "Ġlá»ĩch": 4787,
      "ĠKat": 4788,
      "ĠThá»¥c": 4789,
      "ĠSerbia": 4790,
      "ĠMicrosoft": 4791,
      "Ġax": 4792,
      "ĠTÃº": 4793,
      "ĠOlympic": 4794,
      "ĠCOVID": 4795,
      "ĠÄĳá»ĳm": 4796,
      "Ġbá»ģn": 4797,
      "Ġ34": 4798,
      "sau": 4799,
      "urt": 4800,
      "ĠÆ°a": 4801,
      "kov": 4802,
      "ĠBÃłn": 4803,
      "ĠOscar": 4804,
      "ĠBre": 4805,
      "ĠBarb": 4806,
      "2017": 4807,
      "Ġlam": 4808,
      "Ġthá»ĭnh": 4809,
      "ĠÄĳáºŃm": 4810,
      "ÃŃm": 4811,
      "ĠlÃłnh": 4812,
      "ĠTuáº§n": 4813,
      "Ġ75": 4814,
      "ĠBy": 4815,
      "aii": 4816,
      "isa": 4817,
      "eet": 4818,
      "ĠMary": 4819,
      "ute": 4820,
      "rav": 4821,
      "Ġacid": 4822,
      "ĠBell": 4823,
      "ÄĲá»©c": 4824,
      "ĠRon": 4825,
      "ĠMyan": 4826,
      "amo": 4827,
      "ĠVI": 4828,
      "2002": 4829,
      "ject": 4830,
      "stit": 4831,
      "eh": 4832,
      "ĠÄĳiÃªu": 4833,
      "ĠTráº¥n": 4834,
      "ĠCá»Ńu": 4835,
      "cc": 4836,
      "Ġ;": 4837,
      "nhÆ°": 4838,
      "Ġrau": 4839,
      "ĠSel": 4840,
      "ĠCer": 4841,
      "ĠHor": 4842,
      "aku": 4843,
      "ĠVá»ĭnh": 4844,
      "ĠTinh": 4845,
      "ĠSon": 4846,
      "Ġgá»£i": 4847,
      "Ã¼r": 4848,
      "ych": 4849,
      "ĠIN": 4850,
      "ĠTrans": 4851,
      "ĠEth": 4852,
      "ti": 4853,
      "áº¥c": 4854,
      "ĠLG": 4855,
      "Ġáº¥m": 4856,
      "ĠbÃª": 4857,
      "IT": 4858,
      "áº¯k": 4859,
      "ĠmÃ¬": 4860,
      "ĠKhai": 4861,
      "ĠCharl": 4862,
      "ĠMá»Ł": 4863,
      "iff": 4864,
      "ĠViet": 4865,
      "Ġbuá»ĵn": 4866,
      "ĠcÃºp": 4867,
      "ĠHill": 4868,
      "ray": 4869,
      "Ġtang": 4870,
      "ĠmÃ£i": 4871,
      "ĠquÃ¡i": 4872,
      "ĠThá»ĭnh": 4873,
      "ĠsÃłn": 4874,
      "ĠSat": 4875,
      "well": 4876,
      "71": 4877,
      "çİĭ": 4878,
      "hm": 4879,
      "ĠSec": 4880,
      "ĠlÃ²": 4881,
      "Ġláº§m": 4882,
      "uro": 4883,
      "lan": 4884,
      "ĠLife": 4885,
      "oro": 4886,
      "Ġmáº¥y": 4887,
      "arm": 4888,
      "ĠDub": 4889,
      "Ġ400": 4890,
      "CH": 4891,
      "Ġgiá»ı": 4892,
      "ĠTH": 4893,
      "stant": 4894,
      "file": 4895,
      "ĠNight": 4896,
      "ĠLÃ¢u": 4897,
      "Ġ46": 4898,
      "ĠVáº¡n": 4899,
      "ĠbÆ¡i": 4900,
      "ĠSÃ¡ng": 4901,
      "83": 4902,
      "Ġná»ģ": 4903,
      "ĠRuss": 4904,
      "uka": 4905,
      "ilus": 4906,
      "Ã¼n": 4907,
      "82": 4908,
      "ĠYouT": 4909,
      "ĠAfghan": 4910,
      "ĠAwards": 4911,
      "rach": 4912,
      "ĠVirginia": 4913,
      "ĠRod": 4914,
      "ĠDaniel": 4915,
      "ĠTÄĥng": 4916,
      "ĠVo": 4917,
      "ĠtáºŃt": 4918,
      "idaceae": 4919,
      "Ã©r": 4920,
      "ĠSz": 4921,
      "Ġxá»©ng": 4922,
      "ĠÄĳÃ¢u": 4923,
      "ĠÄĳÃ¡o": 4924,
      "ĠTri": 4925,
      "ĠFrancisco": 4926,
      "ĠgÃ³i": 4927,
      "Ġ1934": 4928,
      "FO": 4929,
      "ĠPeru": 4930,
      "Ġnhi": 4931,
      "Ġsá»ķ": 4932,
      "ĠThay": 4933,
      "ĠCÃ´n": 4934,
      "ĠnÃłng": 4935,
      "á»§i": 4936,
      "Ġ$": 4937,
      "Con": 4938,
      "pool": 4939,
      "ĠTrÃ¬nh": 4940,
      "ĠÄĳá»±ng": 4941,
      "Ġ1914": 4942,
      "ĠVÃłng": 4943,
      "anna": 4944,
      "ural": 4945,
      "ather": 4946,
      "ĠGroup": 4947,
      "Ġ1929": 4948,
      "ĠRa": 4949,
      "ongo": 4950,
      "ĠTa": 4951,
      "ĠMak": 4952,
      "vÃł": 4953,
      "Ġkhuyáº¿t": 4954,
      "ĠNar": 4955,
      "ĠGiÃ¡": 4956,
      "ĠHow": 4957,
      "ĠAlbert": 4958,
      "ĠGab": 4959,
      "Ð¾Ð²": 4960,
      "ĠnÃªu": 4961,
      "ĠTrÃŃ": 4962,
      "ĠTrÃ¢n": 4963,
      "di": 4964,
      "Ġhá»ıng": 4965,
      "ĠChel": 4966,
      "ĠBáº¡c": 4967,
      "Ġnháº§m": 4968,
      "ĠPhilip": 4969,
      "ĠMáº¡ng": 4970,
      "ĠBá»ĳi": 4971,
      "ylv": 4972,
      "asa": 4973,
      "ĠNai": 4974,
      "ĠKir": 4975,
      "Ġ120": 4976,
      "ĠÃĤn": 4977,
      "2018": 4978,
      "arch": 4979,
      "atum": 4980,
      "oku": 4981,
      "ĠTháº¥t": 4982,
      "ĠKl": 4983,
      "ĠLand": 4984,
      "ĠBáº¿n": 4985,
      "ĠBulg": 4986,
      "ĠPu": 4987,
      "Ġá»¨": 4988,
      "owa": 4989,
      "eral": 4990,
      "esc": 4991,
      "ĠDisney": 4992,
      "VÃ²ng": 4993,
      "Ġthuáº«n": 4994,
      "ĠGirl": 4995,
      "Ġ150": 4996,
      "attle": 4997,
      "arp": 4998,
      "ĠKhÃŃ": 4999,
      "Ġráº¡p": 5000,
      "ĠquÃ¡t": 5001,
      "ĠsÆ°á»Ŀn": 5002,
      "ĠAfghanistan": 5003,
      "ĠFriedrich": 5004,
      "åĲ": 5005,
      "ĠÄĲá»ı": 5006,
      "ĠHawaii": 5007,
      "ä¹": 5008,
      "Ġláº¯ng": 5009,
      "ska": 5010,
      "ĠxÃ³a": 5011,
      "æ°": 5012,
      "TÃ´i": 5013,
      "ĠÄĳá»Ĺ": 5014,
      "vÃŃ": 5015,
      "oli": 5016,
      "ĠYoung": 5017,
      "Ľt": 5018,
      "endo": 5019,
      "aux": 5020,
      "vent": 5021,
      "ĠCáº¥p": 5022,
      "ĠCáº©m": 5023,
      "Ġbl": 5024,
      "ĠPhÃ¡i": 5025,
      "atsu": 5026,
      "á»§a": 5027,
      "emon": 5028,
      "Ġmáº¡o": 5029,
      "ĠVictoria": 5030,
      "ĠHir": 5031,
      "ĠJam": 5032,
      "Ġab": 5033,
      "ĠÄĳÃºc": 5034,
      "add": 5035,
      "Ġbá»ĳc": 5036,
      "ourg": 5037,
      "ĠIsland": 5038,
      "AF": 5039,
      "ĠMáº¡nh": 5040,
      "ND": 5041,
      "TS": 5042,
      "aun": 5043,
      "Ġdá»Ŀi": 5044,
      "ound": 5045,
      "áº«y": 5046,
      "ait": 5047,
      "enburg": 5048,
      "olk": 5049,
      "81": 5050,
      "cÃ²n": 5051,
      "Ġ1919": 5052,
      "ĠMadrid": 5053,
      "Ġradar": 5054,
      "omar": 5055,
      "ĠReal": 5056,
      "Ġná»£": 5057,
      "å¸": 5058,
      "erd": 5059,
      "enberg": 5060,
      "ĠÄĲá»Ŀi": 5061,
      "ĠMyanmar": 5062,
      "kho": 5063,
      "Ġ1931": 5064,
      "Ġund": 5065,
      "á»ĩn": 5066,
      "ĠMun": 5067,
      "ĠBÃ£o": 5068,
      "atar": 5069,
      "Ġ49": 5070,
      "Ġduá»ĩ": 5071,
      "ĠÄĲá»ģ": 5072,
      "ĠHall": 5073,
      "ĠLen": 5074,
      "ĠhoÃ£n": 5075,
      "Ġ978": 5076,
      "ĠKiÃªn": 5077,
      "ĠKhÃª": 5078,
      "Ġ51": 5079,
      "Ġcá»§ng": 5080,
      "Ġ42": 5081,
      "rea": 5082,
      "ĠMÆ°á»Ŀi": 5083,
      "Ġen": 5084,
      "ĠtrÆ°á»£t": 5085,
      "ĪĴ": 5086,
      "ati": 5087,
      "zy": 5088,
      "rys": 5089,
      "Ġgiá»ıi": 5090,
      "ĠHay": 5091,
      "ison": 5092,
      "men": 5093,
      "Ġ55": 5094,
      "ĠMáº«u": 5095,
      "ĠSlovak": 5096,
      "ĠWall": 5097,
      "Ġ64": 5098,
      "ĠNÃºi": 5099,
      "ĠBÃ¡ch": 5100,
      "74": 5101,
      "300": 5102,
      "elli": 5103,
      "ĠTP": 5104,
      "ĠKo": 5105,
      "ĠRu": 5106,
      "iev": 5107,
      "Ġmá»«ng": 5108,
      "ĠLá»Ĺ": 5109,
      "ĠWin": 5110,
      "ĠBÃ¡n": 5111,
      "hio": 5112,
      "ĠLit": 5113,
      "Ġ1933": 5114,
      "ĠSerie": 5115,
      "Ġthung": 5116,
      "Ã©e": 5117,
      "Ġva": 5118,
      "ĠBad": 5119,
      "ĠRog": 5120,
      "ĠsoÃ¡i": 5121,
      "ĠBas": 5122,
      "Ã©s": 5123,
      "Ġ39": 5124,
      "ĠSab": 5125,
      "ĠLaw": 5126,
      "ĠPart": 5127,
      "61": 5128,
      "ales": 5129,
      "Ġ1910": 5130,
      "hy": 5131,
      "ĠSav": 5132,
      "IC": 5133,
      "2019": 5134,
      "ĠTráº¡ch": 5135,
      "work": 5136,
      "ĠluÃ¢n": 5137,
      "ete": 5138,
      "1998": 5139,
      "ĠchÃło": 5140,
      "Ð¹": 5141,
      "atch": 5142,
      "ĠRen": 5143,
      "Ġpr": 5144,
      "ĠCH": 5145,
      "ĠWebsite": 5146,
      "eum": 5147,
      "Ġpháº¿": 5148,
      "ady": 5149,
      "otte": 5150,
      "TP": 5151,
      "ĠthÃ´i": 5152,
      "ĠTy": 5153,
      "63": 5154,
      "ĠNot": 5155,
      "Ġeo": 5156,
      "ansas": 5157,
      "Ġ1900": 5158,
      "ĠTimes": 5159,
      "imb": 5160,
      "owski": 5161,
      "ĠBrown": 5162,
      "utt": 5163,
      "ĠLiá»ĩt": 5164,
      "ĠYouTube": 5165,
      "ĠThiá»ģn": 5166,
      "Ġcháº½": 5167,
      "ĠCall": 5168,
      "Ġ1917": 5169,
      "jo": 5170,
      "ĠPri": 5171,
      "ĠOd": 5172,
      "ĠDay": 5173,
      "áº¹t": 5174,
      "ST": 5175,
      "umbia": 5176,
      "Ġfl": 5177,
      "¯a": 5178,
      "ĠBiá»ĥu": 5179,
      "Ġlá»«a": 5180,
      "Ġná»Ł": 5181,
      "ĠHÃ£ng": 5182,
      "ĠLáº§n": 5183,
      "Ġchuyá»ģn": 5184,
      "ĠEliz": 5185,
      "ĠtÃºi": 5186,
      "ĠPublish": 5187,
      "Ġleo": 5188,
      "ĠTá»ĳi": 5189,
      "Ġ1932": 5190,
      "ĠBig": 5191,
      "ĠThÄĥng": 5192,
      "ince": 5193,
      "ĠMÃ£n": 5194,
      "Ġcal": 5195,
      "Ġnháº¯m": 5196,
      "ĠCÄĥn": 5197,
      "ĠPot": 5198,
      "ĠnÃºt": 5199,
      "ĠSteph": 5200,
      "ĠquÃ©t": 5201,
      "ĠUSS": 5202,
      "Ġgáº¡o": 5203,
      "Ġrá»ĵng": 5204,
      "ience": 5205,
      "ulf": 5206,
      "ces": 5207,
      "Ġ52": 5208,
      "Ġcá»ĳng": 5209,
      "ĠSri": 5210,
      "73": 5211,
      "ĠHarry": 5212,
      "Ġnhá»±a": 5213,
      "ĠBinh": 5214,
      "thur": 5215,
      "Ġinch": 5216,
      "ĠlÃłn": 5217,
      "bach": 5218,
      "ĠBÃ¡c": 5219,
      "sea": 5220,
      "ĠScott": 5221,
      "ĠDNA": 5222,
      "ĠUp": 5223,
      "ĠmÃ¬n": 5224,
      "ree": 5225,
      "Ġmáº£ng": 5226,
      "}}": 5227,
      "ĠJim": 5228,
      "ĠRay": 5229,
      "ingham": 5230,
      "min": 5231,
      "ĠPier": 5232,
      "Ã½t": 5233,
      "Ġhá»©a": 5234,
      "Ġ1912": 5235,
      "ĠtÃ¡ng": 5236,
      "unk": 5237,
      "ĠBulgaria": 5238,
      "Ġá»¨ng": 5239,
      "åı": 5240,
      "ĠMáºŃt": 5241,
      "AM": 5242,
      "ĠHigh": 5243,
      "inger": 5244,
      "įt": 5245,
      "text": 5246,
      "ournal": 5247,
      "Ġháº¹n": 5248,
      "cer": 5249,
      "dor": 5250,
      "ĠDa": 5251,
      "Ġ?": 5252,
      "ĠBh": 5253,
      "ĠLINE": 5254,
      "ĠAmerica": 5255,
      "ĠXe": 5256,
      "ĠÄĳá»¥": 5257,
      "ario": 5258,
      "Ġbá»¯a": 5259,
      "ĠQua": 5260,
      "raw": 5261,
      "ĠCá»¥m": 5262,
      "rig": 5263,
      "Ġsuá»ĳi": 5264,
      "Ñĭ": 5265,
      "ĠÄĲá»ĵ": 5266,
      "Ġbá»Ļi": 5267,
      "ika": 5268,
      "ĠbÃ³": 5269,
      "Ġkháº©n": 5270,
      "ĠQuÃ¡n": 5271,
      "ĠkhÃŃa": 5272,
      "ĠJon": 5273,
      "Ġpar": 5274,
      "ugu": 5275,
      "ĠEnglish": 5276,
      "Fran": 5277,
      "ĠViáº¿t": 5278,
      "Ġháº±ng": 5279,
      "Ġç": 5280,
      "ĠKi": 5281,
      "ista": 5282,
      "Ġcáº¡n": 5283,
      "Ġphun": 5284,
      "Ġdáº¹p": 5285,
      "giá»": 5286,
      "CD": 5287,
      "ĠUK": 5288,
      "ĠSand": 5289,
      "ason": 5290,
      "Ġáº¥u": 5291,
      "GC": 5292,
      "ĠSud": 5293,
      "ilis": 5294,
      "Æ°á»Ľt": 5295,
      "pera": 5296,
      "ĠCháº¥t": 5297,
      "ĠTime": 5298,
      "ĠTáº¡p": 5299,
      "ĠJung": 5300,
      "ĠÄĳÃ³i": 5301,
      "ĠKal": 5302,
      "Ġmá»ıng": 5303,
      "ĠHuá»³nh": 5304,
      "Ġnáº¥m": 5305,
      "ĠChic": 5306,
      "ĠAssoc": 5307,
      "ĠLÆ°": 5308,
      "tu": 5309,
      "LE": 5310,
      "Ġmac": 5311,
      "helm": 5312,
      "2020": 5313,
      "intendo": 5314,
      "ages": 5315,
      "ĠBah": 5316,
      "ĠTháº©m": 5317,
      "2021": 5318,
      "press": 5319,
      "bor": 5320,
      "can": 5321,
      "ĠMen": 5322,
      "69": 5323,
      "Ġ1913": 5324,
      "ĠCháº¿": 5325,
      "ĠDiego": 5326,
      "emen": 5327,
      "unn": 5328,
      "azz": 5329,
      "ĠOttoman": 5330,
      ";\"|": 5331,
      "Ġhydro": 5332,
      "Ġpháº¥n": 5333,
      "vá»Ľi": 5334,
      "ĠKháº£i": 5335,
      "ĠMot": 5336,
      "ĠâĢł": 5337,
      "Ġsyn": 5338,
      "ĠbÃ´ng": 5339,
      "danh": 5340,
      "Ġsá»ĳt": 5341,
      "po": 5342,
      "ĠGeo": 5343,
      "ĠCount": 5344,
      "serv": 5345,
      "ĠlÃ£o": 5346,
      "eed": 5347,
      "Ġtá»ıa": 5348,
      "rib": 5349,
      "Ġ44": 5350,
      "ike": 5351,
      "ĠhÆ°ng": 5352,
      "ĠLeon": 5353,
      "ĠQuá»¹": 5354,
      "ĠduyÃªn": 5355,
      "ĠColumbia": 5356,
      "Ð¼": 5357,
      "Ġ1922": 5358,
      "ĠSev": 5359,
      "ĠNews": 5360,
      "ustin": 5361,
      "ĠÄĲá»Ļc": 5362,
      "ĠQuÃ¡ch": 5363,
      "ĠAri": 5364,
      "ĠAsh": 5365,
      "AC": 5366,
      "je": 5367,
      "ĠNintendo": 5368,
      "ĠLINEAR": 5369,
      "Ġ1928": 5370,
      "px": 5371,
      "ĠOrch": 5372,
      "ĠkÄ©": 5373,
      "Ġngáº«u": 5374,
      "ĠRoma": 5375,
      "æĿ": 5376,
      "Ġseries": 5377,
      "Ġ1924": 5378,
      "ĠxÆ°á»Ľng": 5379,
      "Ġhuá»ĳng": 5380,
      "oire": 5381,
      "ĠTá»·": 5382,
      "Viá»ĩt": 5383,
      "\").": 5384,
      "ĠmÃ¹i": 5385,
      "ĠInc": 5386,
      "wan": 5387,
      "ĠÄĲáº¡t": 5388,
      "vel": 5389,
      "ÄĲáº¡i": 5390,
      "áº³n": 5391,
      "ĠRem": 5392,
      "ĠCambridge": 5393,
      "ĠHarv": 5394,
      "ĠMol": 5395,
      "thÃ¡ng": 5396,
      "Ġ01": 5397,
      "oáº¡n": 5398,
      "ĠNigeria": 5399,
      "ĠLim": 5400,
      "Ġquáº¡t": 5401,
      "ĠthÃ´": 5402,
      "Ġè": 5403,
      "Ġgá»įn": 5404,
      "Ġáº¨": 5405,
      "khoáº£ng": 5406,
      "Ġ1927": 5407,
      "yth": 5408,
      "pid": 5409,
      "pal": 5410,
      "ĠInt": 5411,
      "ĠKhmer": 5412,
      "ĠSanta": 5413,
      "ĠTranh": 5414,
      "ĠOhio": 5415,
      "ĠlÃµi": 5416,
      "ju": 5417,
      "ĠPhá»ĳ": 5418,
      "arn": 5419,
      "ĠBrun": 5420,
      "ĠCroatia": 5421,
      "aeus": 5422,
      "Ġsá»«ng": 5423,
      "apt": 5424,
      "ĠÄĳÃ²n": 5425,
      "ĠPhÃ¡o": 5426,
      "ĠkiÃªn": 5427,
      "ĠAP": 5428,
      "ĠVill": 5429,
      "gor": 5430,
      "ĠmÃ²n": 5431,
      "ĠSir": 5432,
      "ous": 5433,
      "ĠMilan": 5434,
      "cul": 5435,
      "Ġáº¿ch": 5436,
      "ĠCarib": 5437,
      "ques": 5438,
      "Ġ43": 5439,
      "erto": 5440,
      "Ġ53": 5441,
      "ĠXa": 5442,
      "Ġnhiáº¿p": 5443,
      "Ġthá»¥y": 5444,
      "aire": 5445,
      "ĠPa": 5446,
      "ĠWood": 5447,
      "Trong": 5448,
      "ĠAlf": 5449,
      "igan": 5450,
      "Ã¨re": 5451,
      "bi": 5452,
      "Ġphá»ķi": 5453,
      "Ġláº¡m": 5454,
      "ĠkhiÃªu": 5455,
      "ĠStre": 5456,
      "\"),": 5457,
      "ĠxÃŃch": 5458,
      "ĠShe": 5459,
      "ĠlÃŃ": 5460,
      "Ġdá»ĳc": 5461,
      "{{": 5462,
      "ngh": 5463,
      "ĠJi": 5464,
      "ĠDen": 5465,
      "Ġgl": 5466,
      "ĠSn": 5467,
      "ĠDVD": 5468,
      "ĠBob": 5469,
      "iety": 5470,
      "si": 5471,
      "Ġtá»ĳn": 5472,
      "ĠtrÃ¢u": 5473,
      "ĠHá»ķ": 5474,
      "arth": 5475,
      "yg": 5476,
      "mel": 5477,
      "ĠSak": 5478,
      "iverpool": 5479,
      "ĠmÃºa": 5480,
      "adi": 5481,
      "ĠLeg": 5482,
      "ophyll": 5483,
      "ÅĤaw": 5484,
      "Ġun": 5485,
      "Ġchá»¥c": 5486,
      "ĠChÃ¹a": 5487,
      "Ġ1907": 5488,
      "ĠBud": 5489,
      "ĠâĢ¢": 5490,
      "ĠLive": 5491,
      "ĠPhÃ¹ng": 5492,
      "opteris": 5493,
      "Ġdáº¯t": 5494,
      "ĠBayern": 5495,
      "ĠNhá»ĭ": 5496,
      "ĠChampionship": 5497,
      "Ġlb": 5498,
      "ĠNhu": 5499,
      "ĠTÃºc": 5500,
      "Ġsá»įc": 5501,
      "Ġdá»Ļi": 5502,
      "ĠTre": 5503,
      "Ġ41": 5504,
      "ĠElizabeth": 5505,
      "Ġvá»Ŀi": 5506,
      "style": 5507,
      "pan": 5508,
      "ĠtrÃłn": 5509,
      "Ġruá»Ļng": 5510,
      "ĠhÃ£": 5511,
      "ĠgÆ°Æ¡ng": 5512,
      "cha": 5513,
      "Ġ1908": 5514,
      "ĠChuáº©n": 5515,
      "ral": 5516,
      "æĺ": 5517,
      "ĠWilhelm": 5518,
      "ĠDem": 5519,
      "ĠÄĳáº¡p": 5520,
      "ĠBá»Ļt": 5521,
      "Ġ1905": 5522,
      "ĠChicago": 5523,
      "Ġáº¢nh": 5524,
      "uá»Ļc": 5525,
      "Ġná»ĵng": 5526,
      "ĠBest": 5527,
      "ht": 5528,
      "åį": 5529,
      "Ġmá»ĳc": 5530,
      "ypod": 5531,
      "rin": 5532,
      "ĠFinder": 5533,
      "ĠBáº£y": 5534,
      "Ã¸": 5535,
      "ĠSlovakia": 5536,
      "craft": 5537,
      "ĠÃī": 5538,
      "Ġgan": 5539,
      "linois": 5540,
      "Ġháº³n": 5541,
      "ĠTÃ¹y": 5542,
      "ÑĮ": 5543,
      "ĠHitler": 5544,
      "cho": 5545,
      "eman": 5546,
      "ĠnháºŃm": 5547,
      "Ġsur": 5548,
      "Ġváº£i": 5549,
      "ĠKÃ½": 5550,
      "ĠKhá»§ng": 5551,
      "ĠUFO": 5552,
      "ĠCÆ°á»Ŀng": 5553,
      "anov": 5554,
      "ĠHa": 5555,
      "uto": 5556,
      "RD": 5557,
      "ĠAS": 5558,
      "aurus": 5559,
      "Ġvá»ĭt": 5560,
      "ĠBBC": 5561,
      "ĠShow": 5562,
      "ĠLá»Ŀi": 5563,
      "lÃ´": 5564,
      "ĠTuá»ķi": 5565,
      "ordan": 5566,
      "ĠsÃºc": 5567,
      "SEE": 5568,
      "ĠÄĲá»ģn": 5569,
      "ĠRio": 5570,
      "ĠLiverpool": 5571,
      "ident": 5572,
      "box": 5573,
      "ĠApple": 5574,
      "ret": 5575,
      "ĠChá»£": 5576,
      "ĠJava": 5577,
      "atra": 5578,
      "ĠHiá»ģn": 5579,
      "ili": 5580,
      "ĠPenn": 5581,
      "Ġ1926": 5582,
      "Ġaxit": 5583,
      "ĠIllinois": 5584,
      "formation": 5585,
      "ĠWhite": 5586,
      "ĠChelsea": 5587,
      "ĠAnime": 5588,
      "1997": 5589,
      "ĠlÅ©y": 5590,
      "Äį": 5591,
      "ĠKenn": 5592,
      "aea": 5593,
      "ĠtÃºy": 5594,
      "esia": 5595,
      "ĠId": 5596,
      "ĠNak": 5597,
      "ĠÄĳá»©t": 5598,
      "rac": 5599,
      "ĠXung": 5600,
      "ĠbÃ¢y": 5601,
      "ĠPict": 5602,
      "Ġthá»īnh": 5603,
      "ĠSS": 5604,
      "ĠAnim": 5605,
      "Ġ~": 5606,
      "Ġgiáº¥u": 5607,
      "uman": 5608,
      "Ġcá»ĳi": 5609,
      "á»Ľn": 5610,
      "ĠGall": 5611,
      "Ġnhá»įn": 5612,
      "sung": 5613,
      "Ġliá»ģu": 5614,
      "ĠGramm": 5615,
      "ĠÄĲÃ¡nh": 5616,
      "ĠBÃ¡t": 5617,
      "ĠLáº¡t": 5618,
      "Ġ1925": 5619,
      "ĠChe": 5620,
      "ĠLind": 5621,
      "ĠSport": 5622,
      "æĸ": 5623,
      "ĠNho": 5624,
      "Ġmá»Ŀ": 5625,
      "ER": 5626,
      "Ġná»Ļp": 5627,
      "ĠTiáº¿t": 5628,
      "ĠEu": 5629,
      "ĠGames": 5630,
      "ĠcáºŃy": 5631,
      "ĠLab": 5632,
      "ĠGreat": 5633,
      "ĠAy": 5634,
      "emy": 5635,
      "],": 5636,
      "ĠJohann": 5637,
      "ĠdÃŃnh": 5638,
      "ĠGiáº£": 5639,
      "Ġ1921": 5640,
      "Ġphiáº¿n": 5641,
      "ĠCá»ĳ": 5642,
      "ĠMcC": 5643,
      "icul": 5644,
      "Ġ1911": 5645,
      "oid": 5646,
      "ĠJournal": 5647,
      "ĠKhÃ¡ch": 5648,
      "Ġ1916": 5649,
      "Ġtrá»«ng": 5650,
      "ĠSte": 5651,
      "ĠTáº£": 5652,
      "don": 5653,
      "ĠBut": 5654,
      "ĠKhá»ĳi": 5655,
      "elia": 5656,
      "ype": 5657,
      "Ġsite": 5658,
      "ĠPhá»¥ng": 5659,
      "NgÆ°á»Ŀi": 5660,
      "Ġquá»·": 5661,
      "CS": 5662,
      "ĠEnc": 5663,
      "ĠPomer": 5664,
      "nd": 5665,
      "Ġhoáº¡i": 5666,
      "ĠNhá»Ŀ": 5667,
      "agu": 5668,
      "ĠDai": 5669,
      "ĠGerman": 5670,
      "Ġtáº¥u": 5671,
      "Ġhá»ĳi": 5672,
      "edonia": 5673,
      "ĠbÃ©o": 5674,
      "ĠmÃ³ng": 5675,
      "ĠÄĳÃ¢m": 5676,
      "Ġráº¡n": 5677,
      "vin": 5678,
      "rot": 5679,
      "ĠLÄ©nh": 5680,
      "ĠmÃ¹": 5681,
      "kan": 5682,
      "ĠSociety": 5683,
      "ĠOpen": 5684,
      "Ġnghá»ĭch": 5685,
      "ishi": 5686,
      "NH": 5687,
      "opa": 5688,
      "ĠÄĳeo": 5689,
      "ĠCry": 5690,
      "ript": 5691,
      "ĠÄĲá»ĳc": 5692,
      "ĠWolf": 5693,
      "Nguyá»ħn": 5694,
      "å¤§": 5695,
      "Ġro": 5696,
      "ĠJos": 5697,
      "NES": 5698,
      "ĠHá»ıa": 5699,
      "ĠGod": 5700,
      "ĠcÃ³c": 5701,
      "Ġtiá»ĩc": 5702,
      "war": 5703,
      "Ġvay": 5704,
      "agi": 5705,
      "ĠÃģnh": 5706,
      "ĠFilm": 5707,
      "zi": 5708,
      "aser": 5709,
      "uda": 5710,
      "Ġbáº¿n": 5711,
      "ĠHong": 5712,
      "ĠLor": 5713,
      "ĠHon": 5714,
      "odon": 5715,
      "Ġ1923": 5716,
      "aly": 5717,
      "rog": 5718,
      "actyl": 5719,
      "ittle": 5720,
      "rah": 5721,
      "Ġ54": 5722,
      "ĠHoáº±ng": 5723,
      "ardo": 5724,
      "ĠTaylor": 5725,
      "CM": 5726,
      "ĠAnth": 5727,
      "ĠHenri": 5728,
      "aru": 5729,
      "jin": 5730,
      "ĠtrÄĥng": 5731,
      "ĠCatal": 5732,
      "Ġvar": 5733,
      "ĠThÃ¡o": 5734,
      "ĠMedia": 5735,
      "dong": 5736,
      "Ġngai": 5737,
      "ĠMaur": 5738,
      "ĠRoyal": 5739,
      "Ġ1906": 5740,
      "ĠVai": 5741,
      "ascar": 5742,
      "celona": 5743,
      "ival": 5744,
      "Ġ1915": 5745,
      "ĠlÆ°á»¡i": 5746,
      "ĠLau": 5747,
      "ĠNhi": 5748,
      "ĠCÃł": 5749,
      "Ġplay": 5750,
      "ĠKháº£": 5751,
      "itor": 5752,
      "ston": 5753,
      "1996": 5754,
      "ĠbÃ¡t": 5755,
      "ĠrÃło": 5756,
      "iop": 5757,
      "ĠVlad": 5758,
      "Ġ1000": 5759,
      "ĠBlue": 5760,
      "Ġmi": 5761,
      "itter": 5762,
      "Ã©on": 5763,
      "Ġmáº¯n": 5764,
      "coln": 5765,
      "ĠMoh": 5766,
      "ĠAbd": 5767,
      "ĠÄĲen": 5768,
      "ĠtÃŃm": 5769,
      "ĠINSEE": 5770,
      "ĠPlat": 5771,
      "ĠMáºŃu": 5772,
      "ĠTriáº¿t": 5773,
      "ĠFe": 5774,
      "omen": 5775,
      "ĠEnd": 5776,
      "ĠNÄĥng": 5777,
      "ĠKai": 5778,
      "Ġháº£o": 5779,
      "ĠHab": 5780,
      "ĠHolly": 5781,
      "ĠArmenia": 5782,
      "ĠtÃºc": 5783,
      "ĠEver": 5784,
      "Ġlog": 5785,
      "ĠDiÃªn": 5786,
      "Ġmet": 5787,
      "ĠLiv": 5788,
      "ĠsÃºt": 5789,
      "usa": 5790,
      "Nam": 5791,
      "ĠBritish": 5792,
      "ĠSin": 5793,
      "ĠgiáºŃt": 5794,
      "ĠHans": 5795,
      "ots": 5796,
      "ĠModel": 5797,
      "ĠmÃ¢u": 5798,
      "ĠKong": 5799,
      "ĠnghiÃªng": 5800,
      "Ġnit": 5801,
      "ĠPalomar": 5802,
      ",\"": 5803,
      "ĠCompany": 5804,
      "nik": 5805,
      "Ġ1909": 5806,
      "ĠTÆ°á»Łng": 5807,
      "oster": 5808,
      "ĠbÃ¡ch": 5809,
      "Ġhung": 5810,
      "ÑģÑĤ": 5811,
      "ĠCarolina": 5812,
      "beria": 5813,
      "ĠchiÃªu": 5814,
      "Br": 5815,
      "iform": 5816,
      "ĠtráºŃt": 5817,
      "earch": 5818,
      "ĠLiga": 5819,
      "ĠPháº£n": 5820,
      "ography": 5821,
      "ĠhÃ£m": 5822,
      "ĠngÃ³n": 5823,
      "Ġtha": 5824,
      "ĠGil": 5825,
      "Ġì": 5826,
      "ĠYu": 5827,
      "åľ": 5828,
      "eim": 5829,
      "ĠLGBT": 5830,
      "yu": 5831,
      "ĠLincoln": 5832,
      "ĠEast": 5833,
      "mon": 5834,
      "mond": 5835,
      "ĠSystem": 5836,
      "1995": 5837,
      "ĠJordan": 5838,
      "so": 5839,
      "åİ": 5840,
      "ĠBarcelona": 5841,
      "Ġ56": 5842,
      "ĠÄĳáº¯c": 5843,
      "rol": 5844,
      "ĠCosta": 5845,
      "Ġ58": 5846,
      "ĠAugust": 5847,
      "ĠFel": 5848,
      "ĠcÃºng": 5849,
      "Ġkhá»Ľp": 5850,
      "Ġau": 5851,
      "agn": 5852,
      "ĠxÃ¡": 5853,
      "ĠFin": 5854,
      "ĠChá»©ng": 5855,
      "ĠKhÃ¡c": 5856,
      "Ġper": 5857,
      "ÅĽ": 5858,
      "cast": 5859,
      "å°": 5860,
      "ĠCongo": 5861,
      "Ġngá»Ļ": 5862,
      "ĠvÃ¡n": 5863,
      "ĠNhÆ¡n": 5864,
      "theo": 5865,
      "ĠDig": 5866,
      "ira": 5867,
      "zo": 5868,
      "ĠTÃŃch": 5869,
      "ĠmÅ©": 5870,
      "ĠMap": 5871,
      "Ñĩ": 5872,
      "uction": 5873,
      "eton": 5874,
      "nhá»¯ng": 5875,
      "Ġáº¤u": 5876,
      "len": 5877,
      "Ġmod": 5878,
      "ents": 5879,
      "ĠdÃª": 5880,
      "ĠTeam": 5881,
      "orus": 5882,
      "optera": 5883,
      "ĠbÃ¹": 5884,
      "Ġmá»¡": 5885,
      "trÆ°á»Ľc": 5886,
      "ĠMarc": 5887,
      "kins": 5888,
      "ĠÃ¢n": 5889,
      "Ġmar": 5890,
      "ĠGiÃ¡p": 5891,
      "ĠBá»ĳn": 5892,
      "Ġthá»Ł": 5893,
      "aven": 5894,
      "ĠcÃłi": 5895,
      "ĠXÃ¡": 5896,
      "ÐµÐ½": 5897,
      "Station": 5898,
      "olution": 5899,
      "yeong": 5900,
      "BA": 5901,
      "alus": 5902,
      "Ġdáº¡": 5903,
      "etta": 5904,
      "asp": 5905,
      "yclop": 5906,
      "Ġtá»ĭ": 5907,
      "ĠkhoÃ¡n": 5908,
      "atri": 5909,
      "ĠlÆ°á»Ŀn": 5910,
      "Ġngá»«a": 5911,
      "ĠSE": 5912,
      "iction": 5913,
      "ever": 5914,
      "Ġnháº¡y": 5915,
      "ĠLanka": 5916,
      "ĠBou": 5917,
      "ĠEP": 5918,
      "ĠAndrew": 5919,
      "Ġbar": 5920,
      "Ġ1904": 5921,
      "left": 5922,
      "achus": 5923,
      "Ġ250": 5924,
      "idge": 5925,
      "ĠtÃ¹ng": 5926,
      "Ġchá»ĳt": 5927,
      "Ġcháº·ng": 5928,
      "ĠÃ´n": 5929,
      "ĠNháºŃn": 5930,
      "aid": 5931,
      "ĠdÅ©ng": 5932,
      "ÑģÐº": 5933,
      "Ġcarbon": 5934,
      "ĠDer": 5935,
      "ĠMoz": 5936,
      "ä»": 5937,
      "ĠFrance": 5938,
      "ĠtrÃł": 5939,
      "ÑĢÐ°": 5940,
      "DF": 5941,
      "ĠNÃ³i": 5942,
      "ĠMao": 5943,
      "anta": 5944,
      "ĠCáº¥u": 5945,
      "ĠMuseum": 5946,
      "ister": 5947,
      "ĠAnna": 5948,
      "ĠBoston": 5949,
      "organ": 5950,
      "Ġkiá»ĩt": 5951,
      "Ġad": 5952,
      "ĠLÃ¡": 5953,
      "dam": 5954,
      "esa": 5955,
      "ĠMess": 5956,
      "elop": 5957,
      "ĠFac": 5958,
      "ivia": 5959,
      "ĠLatin": 5960,
      "ĠEurope": 5961,
      "ĠÆ¯": 5962,
      "tz": 5963,
      "wig": 5964,
      "ĠChristian": 5965,
      "ĠtÃª": 5966,
      "ĠWay": 5967,
      "IV": 5968,
      "ĠCL": 5969,
      "ĠChina": 5970,
      "ote": 5971,
      "iko": 5972,
      "avia": 5973,
      "ennis": 5974,
      "ĠXIV": 5975,
      "ĠPanama": 5976,
      "Ġváº¡ch": 5977,
      "Ġhist": 5978,
      "roid": 5979,
      "omi": 5980,
      "agascar": 5981,
      "gcolor": 5982,
      "ĠHouse": 5983,
      "ogen": 5984,
      "ref": 5985,
      "uv": 5986,
      "ĠÄĳá»ĩm": 5987,
      "ĠPers": 5988,
      "1992": 5989,
      "shire": 5990,
      "åĮ": 5991,
      "ĠlÃ¢y": 5992,
      "ĠVTV": 5993,
      "opsis": 5994,
      "Ġrá»Ńa": 5995,
      "ourt": 5996,
      "Ġ57": 5997,
      "ĠEs": 5998,
      "ĠYok": 5999,
      "Ġion": 6000,
      "ĠMáº«n": 6001,
      "Ġkhá»ī": 6002,
      "ĠBáº¯t": 6003,
      "Ġbá»į": 6004,
      "Ġmáº·n": 6005,
      "ĠPhÆ°á»£ng": 6006,
      "Ġgá»ĳm": 6007,
      "NESCO": 6008,
      "éĻ": 6009,
      "Ġtá»±u": 6010,
      "ĠBá»Łi": 6011,
      "ĠInstit": 6012,
      "ĠPseud": 6013,
      "ĠLud": 6014,
      "ĠJohnson": 6015,
      "td": 6016,
      "ĠXÃ¢y": 6017,
      "Ġlá»¯": 6018,
      "eva": 6019,
      "aff": 6020,
      "Ġbá»Ľt": 6021,
      "eto": 6022,
      "Ġmiáº¿u": 6023,
      "ĠWilliams": 6024,
      "ĠGra": 6025,
      "ĠBalt": 6026,
      "ĠCorn": 6027,
      "ĠKiá»ĥu": 6028,
      "ĠWes": 6029,
      "ember": 6030,
      "'t": 6031,
      "ĠGm": 6032,
      "ĠThÃŃ": 6033,
      "ĠkhÃ³i": 6034,
      "Ġte": 6035,
      "ĠmÃ³c": 6036,
      "eing": 6037,
      "Ġ600": 6038,
      "AP": 6039,
      "agen": 6040,
      "FF": 6041,
      "etts": 6042,
      "ĠPs": 6043,
      "Giáº£i": 6044,
      "ĠvÃ¢n": 6045,
      "ĠphiÃªu": 6046,
      "Ã´ma": 6047,
      "ĠDec": 6048,
      "iá»ģng": 6049,
      "ĠPlan": 6050,
      "ĠMaj": 6051,
      "ĠNad": 6052,
      "ĠDream": 6053,
      "ĠHÃ£n": 6054,
      "oka": 6055,
      "ĠBao": 6056,
      "ĠPrinc": 6057,
      "ĠvÄ©nh": 6058,
      "ĠSid": 6059,
      "ogne": 6060,
      "Ġtrans": 6061,
      "ĠrÃ¡c": 6062,
      "ĠgiÃ¡ng": 6063,
      "400": 6064,
      "bit": 6065,
      "ĠTrump": 6066,
      "ovo": 6067,
      "ĠThÃŃch": 6068,
      "Ġbin": 6069,
      "ĠJeff": 6070,
      "ĠDry": 6071,
      "ĠvÆ°á»£ng": 6072,
      "ĠkÃ©p": 6073,
      "ional": 6074,
      "ĠPhu": 6075,
      "Ġmuá»Ļn": 6076,
      "ĠMiG": 6077,
      "ĠPlayStation": 6078,
      "Ġláº§y": 6079,
      "ĠUg": 6080,
      "ĠÆ¡n": 6081,
      "ĠKob": 6082,
      "ĠcÆ°á»Ŀi": 6083,
      "ĠCÃ¡nh": 6084,
      "ĠKey": 6085,
      "ĠMadagascar": 6086,
      "ĠVietnam": 6087,
      "å±": 6088,
      "aman": 6089,
      "ĠSáº£i": 6090,
      "ĠtrÃ¡ng": 6091,
      "ĠbÃłng": 6092,
      "Don": 6093,
      "ĠDol": 6094,
      "Ġmon": 6095,
      "aska": 6096,
      "dy": 6097,
      "ble": 6098,
      "Ġtuá»ĩ": 6099,
      "agan": 6100,
      "ied": 6101,
      "ĠCur": 6102,
      "ĠFab": 6103,
      "ĠStalin": 6104,
      "ĠTrá»¥": 6105,
      "roph": 6106,
      "sá»±": 6107,
      "edon": 6108,
      "%)": 6109,
      "Ġngá»įc": 6110,
      "ianus": 6111,
      ".;": 6112,
      "Ġgáº¡ch": 6113,
      "ĠArthur": 6114,
      "ken": 6115,
      "pop": 6116,
      "Æ°Æ¡n": 6117,
      "ĠBelarus": 6118,
      "ench": 6119,
      "gan": 6120,
      "Ġviáº¿ng": 6121,
      "ĠAssociation": 6122,
      "ĠBand": 6123,
      "ĠOre": 6124,
      "ĠquÃªn": 6125,
      "olis": 6126,
      "hin": 6127,
      "ĠlÃ´": 6128,
      "1994": 6129,
      "ĠMach": 6130,
      "ĠthÆ¡m": 6131,
      "ĠCN": 6132,
      "isia": 6133,
      "IN": 6134,
      "ĠHarris": 6135,
      "ĠFern": 6136,
      "Ġchua": 6137,
      "ĠDeb": 6138,
      "ĠChuyáº¿n": 6139,
      "Bl": 6140,
      "ĠDal": 6141,
      "Ġchá»«ng": 6142,
      "ĠPC": 6143,
      "ĠGiÃ¡ng": 6144,
      "ĠUNESCO": 6145,
      "ĠKa": 6146,
      "Ġman": 6147,
      "ĠFox": 6148,
      "ĠMá»Ļ": 6149,
      "ĠchÃ¢m": 6150,
      "Æ¡m": 6151,
      "ĠMÆ°á»Ŀng": 6152,
      "eni": 6153,
      "lex": 6154,
      "ĠJones": 6155,
      "ĠQue": 6156,
      "Ġspecies": 6157,
      "Ġkáº½": 6158,
      "wang": 6159,
      "ĠKiá»ĩt": 6160,
      "ĠMarsh": 6161,
      "Ġ1903": 6162,
      "ĠLar": 6163,
      "ĠCard": 6164,
      "outen": 6165,
      "ĠHáº±ng": 6166,
      "ĠÄĳÃ£i": 6167,
      "ants": 6168,
      "ĠMem": 6169,
      "Ġrá»ħ": 6170,
      "Ġxen": 6171,
      "ift": 6172,
      "imon": 6173,
      "Ġváº¹n": 6174,
      "ĠÄĲáº¯k": 6175,
      "ĠConstant": 6176,
      "asy": 6177,
      "ĠÄĳáº¯p": 6178,
      "ĠnÆ°á»Ľng": 6179,
      "gy": 6180,
      "å·": 6181,
      "edy": 6182,
      "rus": 6183,
      "táºŃp": 6184,
      "ĠsÃ³i": 6185,
      "Tiáº¿ng": 6186,
      "Ġnho": 6187,
      "ĠVÄ©": 6188,
      "ĠKer": 6189,
      "Ġvol": 6190,
      "Ġxoáº¯n": 6191,
      "ĠRang": 6192,
      "ĠBow": 6193,
      "ĠCont": 6194,
      "SA": 6195,
      "ĠChris": 6196,
      "ĠUng": 6197,
      "imir": 6198,
      "ears": 6199,
      "ĠLas": 6200,
      "ĠJr": 6201,
      "Ã©rie": 6202,
      "ĠWik": 6203,
      "ebook": 6204,
      "ĠWW": 6205,
      "ĠAli": 6206,
      "Sp": 6207,
      "icle": 6208,
      "ĠMoon": 6209,
      "Ġ1901": 6210,
      "ä½": 6211,
      "Ġpiano": 6212,
      "ĠTiá»ĩp": 6213,
      "ĠMarie": 6214,
      "ilton": 6215,
      "ĠKhÆ°Æ¡ng": 6216,
      "ĠSund": 6217,
      "Ġráº½": 6218,
      "Ġnáº£y": 6219,
      "ione": 6220,
      "ĠQuáº¿": 6221,
      "ĠGiá»¯a": 6222,
      "ĠGood": 6223,
      "Ġ72": 6224,
      ")\"": 6225,
      "Ãµm": 6226,
      "ĠConc": 6227,
      "ĠXIII": 6228,
      "Ġváº¯ng": 6229,
      "ĠkhÃ¡nh": 6230,
      "ĠtÃº": 6231,
      "ĠLá»Ľn": 6232,
      "ĠKenya": 6233,
      "sburg": 6234,
      "ĠHÃ²n": 6235,
      "ando": 6236,
      "adel": 6237,
      "ifer": 6238,
      "athan": 6239,
      "ĠPor": 6240,
      "ĠSpring": 6241,
      "ĠhÃ£y": 6242,
      "ĠItalia": 6243,
      "Ġ1899": 6244,
      "anch": 6245,
      "ĠRub": 6246,
      "ĠMÃłu": 6247,
      "ĠKhÃ¡ng": 6248,
      "Ø§": 6249,
      "lev": 6250,
      "ĠBÃŃch": 6251,
      "EC": 6252,
      "olas": 6253,
      "ĠKos": 6254,
      "ĠProd": 6255,
      "ĠNÆ¡i": 6256,
      "ĠBall": 6257,
      "ĠSÃ¡u": 6258,
      "ĠtrÃ´i": 6259,
      "ĠnhÅ©ng": 6260,
      "uta": 6261,
      "phia": 6262,
      "ĠHouten": 6263,
      "Ġ(),": 6264,
      "ĠDor": 6265,
      "rob": 6266,
      "ĠAfr": 6267,
      "nia": 6268,
      "ĠPok": 6269,
      "ĠÄĳáº¥y": 6270,
      "Ġgáº¥u": 6271,
      "ĠMV": 6272,
      "ĠÃģi": 6273,
      "ĠlÃ¹i": 6274,
      "Ġngo": 6275,
      "ĠSÆ¡": 6276,
      "ĠchÃ¡nh": 6277,
      "Ġ1895": 6278,
      "PS": 6279,
      "ĠAct": 6280,
      "Ġ800": 6281,
      "ĠThá»©c": 6282,
      "ĠPas": 6283,
      "ĠChá»¯": 6284,
      "ega": 6285,
      "ĠLá»Ļ": 6286,
      "Ġoff": 6287,
      "PT": 6288,
      "Ġ1902": 6289,
      "ĠGrammy": 6290,
      "ĠbÃ¬a": 6291,
      "ĠCÃłn": 6292,
      "ĠMiÃªu": 6293,
      "ĠGor": 6294,
      "ĠHis": 6295,
      ";\"": 6296,
      "zania": 6297,
      "ĠMinnes": 6298,
      "ĠSÃ³c": 6299,
      "idel": 6300,
      "thÆ°á»Ŀng": 6301,
      "ĠTrá»±c": 6302,
      "ĠSeries": 6303,
      "ĠBooks": 6304,
      "ĠÄĳÃł": 6305,
      "icia": 6306,
      "ĠRadio": 6307,
      "ĠCáºŃu": 6308,
      "ĠSub": 6309,
      "ĠBund": 6310,
      "Ġtrá»Ļm": 6311,
      "ĠSul": 6312,
      "ĠHom": 6313,
      "ĠRaj": 6314,
      "ative": 6315,
      "ĠtÆ¡": 6316,
      "ĠcÆ°á»¡ng": 6317,
      "uchi": 6318,
      "ĠRobin": 6319,
      "andy": 6320,
      "ĠsÃ©t": 6321,
      "ĠAmaz": 6322,
      "bar": 6323,
      "ĠGlob": 6324,
      "Ġngá»¥": 6325,
      "ĠChÄĥm": 6326,
      "ĠGiÃª": 6327,
      "ĠMinnesota": 6328,
      "ĠSÃºng": 6329,
      "anus": 6330,
      "Hoa": 6331,
      "ĠÄĳáº¯m": 6332,
      "1945": 6333,
      "achusetts": 6334,
      "fo": 6335,
      "ĠAnne": 6336,
      "%:": 6337,
      "tric": 6338,
      "ĠCult": 6339,
      "ĠCá»Ńa": 6340,
      "ĠVar": 6341,
      "ĠTho": 6342,
      "ĠArsen": 6343,
      "sur": 6344,
      "ĠDC": 6345,
      "ĠMov": 6346,
      "ĠKÃªnh": 6347,
      "xem": 6348,
      "omon": 6349,
      "ante": 6350,
      "uce": 6351,
      "Sch": 6352,
      "ĠDam": 6353,
      "1991": 6354,
      "ĠTi": 6355,
      "ĠFal": 6356,
      "Ġ1897": 6357,
      "ĠHoÃł": 6358,
      "ĠFirst": 6359,
      "Ġ95": 6360,
      "ental": 6361,
      "Ġtriá»ĩt": 6362,
      "ĠSic": 6363,
      "1993": 6364,
      "ĠCenter": 6365,
      "for": 6366,
      "ĠlÆ°á»Ŀng": 6367,
      "ĠChuyá»ĥn": 6368,
      "ĠLight": 6369,
      "ĠÆ°á»Ľt": 6370,
      "ĠGáº§n": 6371,
      "atic": 6372,
      "bury": 6373,
      "ĠTráº»": 6374,
      "Wh": 6375,
      "ĠPed": 6376,
      "ĠMassachusetts": 6377,
      "Ġtáº¯m": 6378,
      "istr": 6379,
      "ĠRÃ´ma": 6380,
      "ĠYÃªu": 6381,
      "nhá»ı": 6382,
      "ĠLew": 6383,
      "ĠGreg": 6384,
      "ushi": 6385,
      "ĠTráº¯ng": 6386,
      "ĠTrÃ¬": 6387,
      "LiÃªn": 6388,
      "ĠnÃ©n": 6389,
      "arl": 6390,
      "ĠSchool": 6391,
      "eme": 6392,
      "zer": 6393,
      "Ġlá»¥t": 6394,
      "ĠTháº£o": 6395,
      "Má»Ļt": 6396,
      "ĠGard": 6397,
      "tra": 6398,
      "wo": 6399,
      "Ġmic": 6400,
      "ĠKry": 6401,
      "ifolia": 6402,
      "ĠRey": 6403,
      "asm": 6404,
      "ĠConn": 6405,
      "ĠTháº¡c": 6406,
      "ĠMiá»ģn": 6407,
      "1990": 6408,
      "ĠOld": 6409,
      "abe": 6410,
      "Ġáº¨m": 6411,
      "ovich": 6412,
      "ĠVII": 6413,
      "ĠEuro": 6414,
      "ĠTun": 6415,
      "achi": 6416,
      "enna": 6417,
      "çļ": 6418,
      "ĠPre": 6419,
      "ĠHamp": 6420,
      "Anh": 6421,
      "ĠChá»©c": 6422,
      "ally": 6423,
      "gn": 6424,
      "ĠProfile": 6425,
      "san": 6426,
      "Ġelec": 6427,
      "urch": 6428,
      "ĠSamsung": 6429,
      "ymph": 6430,
      "ĠVáº¥n": 6431,
      "ĠHollywood": 6432,
      "VN": 6433,
      "ĠHá»Ļ": 6434,
      "ĠAleks": 6435,
      "Ġmáº§m": 6436,
      "ylvania": 6437,
      "ĠPen": 6438,
      "å¾": 6439,
      "ĠchÃ©m": 6440,
      "ĠSÃ£o": 6441,
      "ĠSung": 6442,
      "esl": 6443,
      "ersey": 6444,
      "ĠBoeing": 6445,
      "Ã¶r": 6446,
      "ĠPictures": 6447,
      "ĠhÃłn": 6448,
      "isch": 6449,
      "ĠhÃ£i": 6450,
      "ĠNiÃªn": 6451,
      "Ġláº·ng": 6452,
      "ĠPle": 6453,
      "pos": 6454,
      "Ġcháº©n": 6455,
      "ĠHim": 6456,
      "ĠÄĲÃ£": 6457,
      "ĠIng": 6458,
      "ĠXÆ°á»Łng": 6459,
      "ĠChal": 6460,
      "ĠIowa": 6461,
      "ĠOm": 6462,
      "ĠElec": 6463,
      "vis": 6464,
      "ĠPower": 6465,
      "800": 6466,
      "Ġ1891": 6467,
      "ingrad": 6468,
      "han": 6469,
      "Ġngá»¥c": 6470,
      "ĠLáº¡i": 6471,
      "ĠthÃ¹ng": 6472,
      "Ġthá»±": 6473,
      "ĠNá»Ńa": 6474,
      "ĠTem": 6475,
      "Ġ1898": 6476,
      "ĠAndr": 6477,
      "ĠServ": 6478,
      "ĠgiÃ£n": 6479,
      "ĠClark": 6480,
      "Ġ1890": 6481,
      "ĠHein": 6482,
      "Ġláº·n": 6483,
      "Ġbáº¿p": 6484,
      "ĠCÃ¡p": 6485,
      "Ġ85": 6486,
      "áº»o": 6487,
      "IM": 6488,
      "Ġbgcolor": 6489,
      "ĠSher": 6490,
      "ĠXÃŃch": 6491,
      "ĠgiÃły": 6492,
      "ĠNepal": 6493,
      "ĠMTV": 6494,
      "ãĥ¼": 6495,
      "ĠAnderson": 6496,
      "Ġheo": 6497,
      "ĠTanzania": 6498,
      "ude": 6499,
      "pen": 6500,
      "urus": 6501,
      "ĠBeat": 6502,
      "ĠNgÃ£i": 6503,
      "La": 6504,
      "ĠdÃ¡m": 6505,
      "bin": 6506,
      "ĠMacedonia": 6507,
      "Ġgiáº·c": 6508,
      "Ġart": 6509,
      "ular": 6510,
      "icz": 6511,
      "ĠthÃ¹y": 6512,
      "Ġclass": 6513,
      "ĠFish": 6514,
      "ĠsÃ´i": 6515,
      "ammad": 6516,
      "ĠJuan": 6517,
      "ĠDougl": 6518,
      "val": 6519,
      "ĠYak": 6520,
      "á»Ľc": 6521,
      "Ġ1896": 6522,
      "ives": 6523,
      "ĠLomb": 6524,
      "ĠHand": 6525,
      "Ġrá»§i": 6526,
      "ĠthÃ¢m": 6527,
      "ĠJoe": 6528,
      "tor": 6529,
      "ÃŁ": 6530,
      "Ġnew": 6531,
      "ĠÐ¡": 6532,
      "Ġne": 6533,
      "ĠTang": 6534,
      "Ġnhiá»ħu": 6535,
      "ĠquÃ£ng": 6536,
      "ĠbÃ¡m": 6537,
      "ĠRoss": 6538,
      "Ġli": 6539,
      "ĠNhiá»ĩm": 6540,
      "ird": 6541,
      "ĠAndroid": 6542,
      "ĠOnline": 6543,
      "amoto": 6544,
      "ĠJin": 6545,
      "eller": 6546,
      "ves": 6547,
      "ĠEug": 6548,
      "ĠHiá»ĥn": 6549,
      "ĠXIX": 6550,
      "600": 6551,
      "eno": 6552,
      "ĠIc": 6553,
      "ĠAC": 6554,
      "ĠBÄĥng": 6555,
      "sm": 6556,
      "ĠKháº©u": 6557,
      "Ġsay": 6558,
      "ĠxoÃ¡y": 6559,
      "League": 6560,
      "Ð³": 6561,
      "ĠgÃ£y": 6562,
      "ras": 6563,
      "ĠScience": 6564,
      "QÄĲ": 6565,
      "Ġ63": 6566,
      "inos": 6567,
      "Pol": 6568,
      "ĠState": 6569,
      "ĠPublishing": 6570,
      "ĠNS": 6571,
      "ĠtÃ¡o": 6572,
      "ĠÄĲÃłm": 6573,
      "ault": 6574,
      "ĠUyÃªn": 6575,
      "oud": 6576,
      "emia": 6577,
      "Ġcuá»Ļn": 6578,
      "çĶ": 6579,
      "Ġráº£i": 6580,
      "ĠYang": 6581,
      "Ġsolo": 6582,
      "Ġngon": 6583,
      "Ġhoáº¡n": 6584,
      "ĠYour": 6585,
      "ogl": 6586,
      "ĠDep": 6587,
      "ĠGon": 6588,
      "view": 6589,
      "ĠDong": 6590,
      "Ġbo": 6591,
      "Ġmin": 6592,
      "ĠCÆ°": 6593,
      "Ġong": 6594,
      "ĠTuyáº¿t": 6595,
      "Ġcor": 6596,
      "ingen": 6597,
      "inawa": 6598,
      "Ġki": 6599,
      "Ġrap": 6600,
      "lam": 6601,
      "ĠLittle": 6602,
      "NháºŃt": 6603,
      "ĠLáº¡ng": 6604,
      "bus": 6605,
      "ĠWalter": 6606,
      "leng": 6607,
      "ĠCir": 6608,
      "ĠEsp": 6609,
      "ĠdÃ¢u": 6610,
      "Ã¶n": 6611,
      "Ġ|<": 6612,
      "Ġ61": 6613,
      "âĢĿ.": 6614,
      "ĠOut": 6615,
      "ĠRud": 6616,
      "DA": 6617,
      "ĠBorn": 6618,
      "ĠFreder": 6619,
      "Ġgiáº¥c": 6620,
      "ĠManga": 6621,
      "elin": 6622,
      "ĠDur": 6623,
      "ĠAsia": 6624,
      "ĠTáº¡": 6625,
      "ĠKhan": 6626,
      "ĠCre": 6627,
      "Ġhá»ĳ": 6628,
      "Ġ66": 6629,
      "ĠWilson": 6630,
      "ĠArsenal": 6631,
      "éķ": 6632,
      "ĠKhá»ķng": 6633,
      "estine": 6634,
      "Ġsáº«m": 6635,
      "ĠKent": 6636,
      "ĠDiá»ĩn": 6637,
      "ĠUganda": 6638,
      "Sc": 6639,
      "Ġmiá»ĩn": 6640,
      "ĠÄĲá»ķng": 6641,
      "Ġkem": 6642,
      "ely": 6643,
      "ĠEncyclop": 6644,
      "Ġcomm": 6645,
      "Ġnhá»ĩn": 6646,
      "ĠngÆ°ng": 6647,
      "ĠLtd": 6648,
      "ĠDiá»ĩm": 6649,
      "ĠBÃ¡i": 6650,
      "ĠDiá»ĩu": 6651,
      "Ġ1889": 6652,
      "oen": 6653,
      "ape": 6654,
      "ĠbuÃ½t": 6655,
      "htm": 6656,
      "uh": 6657,
      "Ġráº»": 6658,
      "Ġkhoang": 6659,
      "ĠChristoph": 6660,
      "ĠNapolÃ©on": 6661,
      "ĠÄĲÃªm": 6662,
      "ĠDia": 6663,
      "SÃ¢n": 6664,
      "Ġcáº©n": 6665,
      "ĠCollege": 6666,
      "éĥ": 6667,
      "ĠÄĳu": 6668,
      "Ġtre": 6669,
      "ader": 6670,
      "ĠGuy": 6671,
      "Ġthoáº£ng": 6672,
      "Î±": 6673,
      "ĠVis": 6674,
      "vi": 6675,
      "xin": 6676,
      "ĠThan": 6677,
      "iri": 6678,
      "ĠlÃ¹n": 6679,
      "ĠNick": 6680,
      "1975": 6681,
      "ĠHMS": 6682,
      "arta": 6683,
      "ĠNhiá»ĩt": 6684,
      "ĠThuá»ĳc": 6685,
      "ĠThuáº§n": 6686,
      "Ð·": 6687,
      "rest": 6688,
      "ĠProject": 6689,
      "Ġmá»Ļc": 6690,
      "ĠStudios": 6691,
      "ĠvÃ²m": 6692,
      "oke": 6693,
      "ĠAlg": 6694,
      "ASA": 6695,
      "Ġbe": 6696,
      "ĠBoh": 6697,
      "Ġcuá»ĳng": 6698,
      "ĠBeng": 6699,
      "ĠSpec": 6700,
      "1989": 6701,
      "Ġrec": 6702,
      "idea": 6703,
      "acc": 6704,
      "Ġbuá»ĵng": 6705,
      "ĠChart": 6706,
      "ĠOkinawa": 6707,
      "ĠAircraft": 6708,
      "ĠÄĳÃŃnh": 6709,
      "ladesh": 6710,
      "Ġ77": 6711,
      "ĠHard": 6712,
      "agne": 6713,
      "ĠTÆ°á»£ng": 6714,
      "ĠPav": 6715,
      "ĠRick": 6716,
      "iter": 6717,
      "ĠPierre": 6718,
      "ĠCá»©": 6719,
      "ĠchuÃ´ng": 6720,
      "ech": 6721,
      "ĠCab": 6722,
      "Ġinter": 6723,
      "ĠVu": 6724,
      "Ġbá»ĩ": 6725,
      "Ġmiáº¿ng": 6726,
      "Ã«": 6727,
      "oul": 6728,
      "ĠLig": 6729,
      "á»ĭa": 6730,
      "ĠFam": 6731,
      "Ġkiá»ĩm": 6732,
      "bes": 6733,
      "ĠCass": 6734,
      "uya": 6735,
      "Ġtrá»Ļi": 6736,
      "ĠSÃŃp": 6737,
      "ĠHá»Ĺ": 6738,
      "ĠIb": 6739,
      "ĠFort": 6740,
      "Ġcá»ĳc": 6741,
      "eds": 6742,
      "ĠErn": 6743,
      "Ġtour": 6744,
      "Ġtá»¥ng": 6745,
      "Ġ03": 6746,
      "ĠStephen": 6747,
      "ĠDomin": 6748,
      "ĠLÃ£o": 6749,
      "ĠSC": 6750,
      "Ġ04": 6751,
      "Ġ62": 6752,
      "ĠGDP": 6753,
      "ĠNikol": 6754,
      "Ġkhá»Ń": 6755,
      "NhÃł": 6756,
      "chá»§": 6757,
      "elly": 6758,
      "ĠMerc": 6759,
      "esp": 6760,
      "CÃ¡c": 6761,
      "ĠVinc": 6762,
      "éģ": 6763,
      "ĠMk": 6764,
      "ĠSound": 6765,
      "Ġ1870": 6766,
      "ĠRoman": 6767,
      "ways": 6768,
      "rain": 6769,
      "ĠHem": 6770,
      "ĠMÃ¼n": 6771,
      "mid": 6772,
      "ĠBá»Ŀ": 6773,
      "Ġháº¡ch": 6774,
      "ĠSÃ¹ng": 6775,
      "ĠJersey": 6776,
      "osc": 6777,
      "Ġkil": 6778,
      "ty": 6779,
      "eli": 6780,
      "sylvania": 6781,
      "rik": 6782,
      "ĠÃļt": 6783,
      "åŃĲ": 6784,
      "ians": 6785,
      "ĠKor": 6786,
      "ĠTÃ¡m": 6787,
      "ĠCounty": 6788,
      "Ġláº¥n": 6789,
      "Ġare": 6790,
      "esi": 6791,
      "ĠMC": 6792,
      "ĠCá»ĳc": 6793,
      "ĠBangladesh": 6794,
      "ulus": 6795,
      "].": 6796,
      "rez": 6797,
      "Ġ68": 6798,
      "Ġ76": 6799,
      "ĠGeneral": 6800,
      "ĠTen": 6801,
      "Ã¢nia": 6802,
      "ente": 6803,
      "ĠWarsaw": 6804,
      "ento": 6805,
      "Un": 6806,
      "ĠKazakh": 6807,
      "ĠBrad": 6808,
      "ĠtÃ´m": 6809,
      "åħ¬": 6810,
      "ĠNguyá»ĩt": 6811,
      "ĠGeorgia": 6812,
      "ĠtrÃ¹m": 6813,
      "ĠXÃª": 6814,
      "yme": 6815,
      "Ġkhe": 6816,
      "xide": 6817,
      "ĠKhÃ¢m": 6818,
      "ĠGmina": 6819,
      "ĠMand": 6820,
      "ĠNetwork": 6821,
      "ĠWork": 6822,
      "ĠÃĶn": 6823,
      "ĠLoc": 6824,
      "ĠEthiop": 6825,
      "ĠNeo": 6826,
      "Ġngáº¡c": 6827,
      "met": 6828,
      "ĠCáºŃn": 6829,
      "aco": 6830,
      "ĠDÆ°á»£c": 6831,
      "ĠJosÃ©": 6832,
      "ĠJacob": 6833,
      "ĠShÅį": 6834,
      "ĠPennsylvania": 6835,
      "ĠSpace": 6836,
      "Cal": 6837,
      "Ġpin": 6838,
      "ĠHyd": 6839,
      "ĠSudan": 6840,
      "Ġngá»Ļt": 6841,
      "ĠDonald": 6842,
      "ĠHeart": 6843,
      "ĠQueens": 6844,
      "',": 6845,
      "001": 6846,
      "Ġãģ": 6847,
      "ĠCáº£i": 6848,
      "ĠHann": 6849,
      "ĠDavis": 6850,
      "Ġ02": 6851,
      "ĠEmp": 6852,
      "ambon": 6853,
      "ĠOregon": 6854,
      "Ġphá»¥ng": 6855,
      "Ġelectron": 6856,
      "Ġhe": 6857,
      "Ġnov": 6858,
      "ES": 6859,
      "ĠHond": 6860,
      "umber": 6861,
      "aba": 6862,
      "Ġlá»©a": 6863,
      "ĠVik": 6864,
      "Ð±": 6865,
      "ĠTae": 6866,
      "Ġshow": 6867,
      "ĠDun": 6868,
      "iti": 6869,
      "ĠMike": 6870,
      "á»ıi": 6871,
      "ĠDj": 6872,
      "Ġrow": 6873,
      "ĠrÃ¬a": 6874,
      "ĠxÃŃt": 6875,
      "ĠHarvard": 6876,
      "ĠSky": 6877,
      "Ġchlor": 6878,
      "ĠCuá»ĳn": 6879,
      "ĠbÆ°u": 6880,
      "Ġthá»ķi": 6881,
      "ĠSM": 6882,
      "ipedia": 6883,
      "ĠArk": 6884,
      "ĠBerg": 6885,
      "rand": 6886,
      "Ä«": 6887,
      "ĠXiÃªm": 6888,
      "ĠghÃ©t": 6889,
      "Ã©g": 6890,
      "ĠStory": 6891,
      "Má»¹": 6892,
      "ĠThÃºy": 6893,
      "áº¹o": 6894,
      "ethyl": 6895,
      "ĠToÃ¡n": 6896,
      "Ġob": 6897,
      "ĠAcad": 6898,
      "ĠUt": 6899,
      "ĠYosh": 6900,
      "ophyllum": 6901,
      "Ġcáº¯p": 6902,
      "ĠÄĲÃ¡": 6903,
      "Ġkhoan": 6904,
      "ĠÆ¯á»Ľc": 6905,
      "ido": 6906,
      "ÄĻ": 6907,
      "Pl": 6908,
      "Am": 6909,
      "ohn": 6910,
      "ĠTruyá»ĩn": 6911,
      "Nhá»¯ng": 6912,
      "ĠCarlos": 6913,
      "ĠClass": 6914,
      "BM": 6915,
      "ĠnÃ¡t": 6916,
      "arag": 6917,
      "CC": 6918,
      "Ġsáº¯m": 6919,
      "anni": 6920,
      "asaki": 6921,
      "æ°ı": 6922,
      "Sm": 6923,
      "skie": 6924,
      "ĠThai": 6925,
      "ithi": 6926,
      "ious": 6927,
      "AD": 6928,
      "worth": 6929,
      "....": 6930,
      "ĠHind": 6931,
      "ĠBull": 6932,
      "ĠRoad": 6933,
      "ĠXII": 6934,
      "ĠDouglas": 6935,
      "Ġneo": 6936,
      "evin": 6937,
      "via": 6938,
      "ites": 6939,
      "uku": 6940,
      "andra": 6941,
      "ĠcÆ¡m": 6942,
      "ĠSor": 6943,
      "ĠTechn": 6944,
      "ĠLombard": 6945,
      "ĠPur": 6946,
      "osp": 6947,
      "ĠquÃł": 6948,
      "Ġhiáº¿p": 6949,
      "Ġ69": 6950,
      "å¹": 6951,
      "ĠGuide": 6952,
      "ĠchÃ¨o": 6953,
      "ĠHáº¡nh": 6954,
      "ĠLog": 6955,
      "ĠvÃ´i": 6956,
      "Ġcac": 6957,
      "anga": 6958,
      "ĠPrad": 6959,
      ".:": 6960,
      "ĠCP": 6961,
      "Ġdá»ĩt": 6962,
      "ule": 6963,
      "ĠSqu": 6964,
      "ĠThung": 6965,
      "Ġbá»ķng": 6966,
      "ĠGiÃ¡c": 6967,
      "ĠPS": 6968,
      "ĠRoll": 6969,
      "Ġ67": 6970,
      "ĠDáº§u": 6971,
      "ĠCorpor": 6972,
      "ĠPalestine": 6973,
      "cht": 6974,
      "ĠEric": 6975,
      "Ġrowspan": 6976,
      "Ġfeet": 6977,
      "evich": 6978,
      "ĠFacebook": 6979,
      "ĠcÃ¡p": 6980,
      "ĠFall": 6981,
      "ext": 6982,
      "ĠSah": 6983,
      "ĠChap": 6984,
      "alian": 6985,
      "ouv": 6986,
      "Ġbit": 6987,
      "ku": 6988,
      "Ġ{": 6989,
      "ynch": 6990,
      "Ñħ": 6991,
      "ĠBá»©c": 6992,
      "ĠStone": 6993,
      "try": 6994,
      "ĠPyr": 6995,
      "Ġ05": 6996,
      "Ġ09": 6997,
      "ĠGalax": 6998,
      "pes": 6999,
      "ĠngÃ²i": 7000,
      "ĠVIII": 7001,
      "Ġcuá»ĵng": 7002,
      "pson": 7003,
      "eira": 7004,
      "Ġ88": 7005,
      "ylon": 7006,
      "Ġnháº«n": 7007,
      "erbai": 7008,
      "wick": 7009,
      "Ġmá»Ļng": 7010,
      "ultan": 7011,
      "ĠÄĳÃły": 7012,
      "Ġhiáº¿u": 7013,
      "ĠMarshall": 7014,
      "fin": 7015,
      "Ġviá»ģn": 7016,
      "ĠDá»¥": 7017,
      "RO": 7018,
      "ĠIP": 7019,
      "rh": 7020,
      "ĠPt": 7021,
      "ĠDoÃ£n": 7022,
      "ĠVictor": 7023,
      "Com": 7024,
      "inia": 7025,
      "ĠRomÃ¢nia": 7026,
      "Ã©l": 7027,
      "ĠTáº¿t": 7028,
      "ĠStreet": 7029,
      "Ġtháº¯t": 7030,
      "ĠYáº¿n": 7031,
      "ĠPuerto": 7032,
      "ĠColor": 7033,
      "ĠToy": 7034,
      "Ð°Ð½": 7035,
      "?\"": 7036,
      "æŃ": 7037,
      "1988": 7038,
      "ĠGhana": 7039,
      "olin": 7040,
      "ypt": 7041,
      "ĠchÃ²m": 7042,
      "Ġká»ģ": 7043,
      "Ġtrá»įn": 7044,
      "ues": 7045,
      "ĠRica": 7046,
      "Ġfr": 7047,
      "ipl": 7048,
      "erbaijan": 7049,
      "bour": 7050,
      "osph": 7051,
      "kok": 7052,
      "áŀ": 7053,
      "ĠLÃ£ng": 7054,
      "uf": 7055,
      "ĠHang": 7056,
      "ĠTrÃºc": 7057,
      "ize": 7058,
      "ress": 7059,
      "ĠchÃ©o": 7060,
      "ĠPres": 7061,
      ".-": 7062,
      "eiro": 7063,
      "ĠHop": 7064,
      "ĠChuyÃªn": 7065,
      "ĠRai": 7066,
      "ĠMob": 7067,
      "icon": 7068,
      "ĠKhÃ¡i": 7069,
      "Ġopera": 7070,
      "Ġ07": 7071,
      "ĠEthiopia": 7072,
      "enko": 7073,
      "ĠJenn": 7074,
      "Ġyá»ĥ": 7075,
      "ĠkhÃ³c": 7076,
      "ĠSony": 7077,
      "ĠDuyÃªn": 7078,
      "ĠGun": 7079,
      "rect": 7080,
      "bek": 7081,
      "ĠSyd": 7082,
      "ĠKansas": 7083,
      "augh": 7084,
      "Ġcáº¯n": 7085,
      "ĠMargar": 7086,
      "nham": 7087,
      "ĠngÃ´": 7088,
      "ĠHart": 7089,
      "ĠKang": 7090,
      "ĠOsaka": 7091,
      "ĠRomania": 7092,
      "ĠFound": 7093,
      "yte": 7094,
      "ĠShim": 7095,
      "elles": 7096,
      "ĠMiáº¿n": 7097,
      "Ġlá»Ļn": 7098,
      "ĠquáºŃt": 7099,
      "ĠFire": 7100,
      "Ġ1894": 7101,
      "ĠAllen": 7102,
      "ĠKaw": 7103,
      "ĠTá»ĭnh": 7104,
      "ids": 7105,
      "\";": 7106,
      "idium": 7107,
      "Ġwh": 7108,
      "unc": 7109,
      "odactyl": 7110,
      "iph": 7111,
      "ĠPapua": 7112,
      "ĠAtt": 7113,
      "ĠÄĲÃłn": 7114,
      "aum": 7115,
      "iva": 7116,
      "ĠgÅ©i": 7117,
      "ĠÄĲoáº¡n": 7118,
      "å±±": 7119,
      "Ġur": 7120,
      "etti": 7121,
      "ĠLiÃªm": 7122,
      "andr": 7123,
      "AY": 7124,
      "wich": 7125,
      "ĠNich": 7126,
      "Æ°Æ¡u": 7127,
      "otus": 7128,
      "kel": 7129,
      "ĠBag": 7130,
      "ĠPublic": 7131,
      "ns": 7132,
      "other": 7133,
      "ĠLewis": 7134,
      "Ġvect": 7135,
      "aica": 7136,
      "the": 7137,
      "ĠVers": 7138,
      "Or": 7139,
      "Ġluá»ĵng": 7140,
      "olm": 7141,
      "ĠAh": 7142,
      "eron": 7143,
      "alo": 7144,
      "ĠBrand": 7145,
      "ĠLiban": 7146,
      "omy": 7147,
      "ĠAzerbaijan": 7148,
      "ĠCaribe": 7149,
      "ĠhÃ¡i": 7150,
      "Ġná»ĳt": 7151,
      "Ġnáº¯ng": 7152,
      "ĠQueen": 7153,
      "amber": 7154,
      "zon": 7155,
      "ĠPost": 7156,
      "ingle": 7157,
      "à¸²": 7158,
      "ges": 7159,
      "ĠvÆ°Æ¡n": 7160,
      "Ġbáº¯p": 7161,
      "ĠchÃºc": 7162,
      "ĠPom": 7163,
      "ĠPra": 7164,
      "ource": 7165,
      "LC": 7166,
      "ĠHáº¯c": 7167,
      "ĠrÃ¹a": 7168,
      "Ġ06": 7169,
      "ãģ®": 7170,
      "ĠPin": 7171,
      "Ã©mon": 7172,
      "ĠThor": 7173,
      "oper": 7174,
      "Ð¾ÑĢ": 7175,
      "ĠÄĲáºŃu": 7176,
      "ĠSteve": 7177,
      "ĠTrin": 7178,
      "Ġ1880": 7179,
      "bu": 7180,
      "=#": 7181,
      "ĠDubai": 7182,
      "ĠBattle": 7183,
      "ization": 7184,
      "Ġxáº¥p": 7185,
      "ĠphÃŃm": 7186,
      "ĠCy": 7187,
      "asha": 7188,
      "ĠChiÃªm": 7189,
      "oko": 7190,
      "ĠFut": 7191,
      "ĠRonald": 7192,
      "idd": 7193,
      "Ġcáº¯m": 7194,
      "ippi": 7195,
      "lov": 7196,
      "ĠJud": 7197,
      "Ġtáº£o": 7198,
      "ĠFeder": 7199,
      "Ġind": 7200,
      "Ġwww": 7201,
      "ager": 7202,
      "atin": 7203,
      "2022": 7204,
      "Ġ1885": 7205,
      "Ġmag": 7206,
      "unic": 7207,
      "ĠMuh": 7208,
      "åĽ": 7209,
      "ĠTob": 7210,
      "Ġreg": 7211,
      "ĠBrian": 7212,
      "ÄĳÃ£": 7213,
      "ĠSilla": 7214,
      "ĠMey": 7215,
      "ĠWild": 7216,
      "ĠCLB": 7217,
      "ries": 7218,
      "ĠHá»©a": 7219,
      "ĠSuz": 7220,
      "ictionary": 7221,
      "ĠbÃ¹n": 7222,
      "ĠKrak": 7223,
      "Ġtáº©y": 7224,
      "ĠAch": 7225,
      "ATO": 7226,
      "Ġstr": 7227,
      "ĠPaulo": 7228,
      "ĠMath": 7229,
      "ĠCá»Ŀ": 7230,
      "ĠGalaxy": 7231,
      "ĠNgÆ°á»£c": 7232,
      "Ġmá»ĵ": 7233,
      "âĪĴ": 7234,
      "Ġváº£y": 7235,
      "ĠSach": 7236,
      "ĠPrim": 7237,
      "ĠSlovenia": 7238,
      "Ġhá»¥": 7239,
      "ĠKom": 7240,
      "ĠFi": 7241,
      "ĠCorporation": 7242,
      "GN": 7243,
      "ĠBolivia": 7244,
      "Ġtiá»ħn": 7245,
      "utsch": 7246,
      "ĠPy": 7247,
      "ĠMarvel": 7248,
      "ĠgÃ¢n": 7249,
      "ĠlÃª": 7250,
      "gá»ĵm": 7251,
      "ĠAlt": 7252,
      "ĠcÃłnh": 7253,
      "ĠCháº¥n": 7254,
      "ĠPradesh": 7255,
      "aph": 7256,
      "ĠCE": 7257,
      "ĠDÆ°": 7258,
      "rence": 7259,
      "orum": 7260,
      "ĠPut": 7261,
      "ĠNghiá»ĩp": 7262,
      "Ġ1893": 7263,
      "ublic": 7264,
      "ĠKle": 7265,
      "ĠÅĮ": 7266,
      "ĠVladimir": 7267,
      "å¯": 7268,
      "Ġsch": 7269,
      "reb": 7270,
      "700": 7271,
      "ĠkÃŃ": 7272,
      "ĠLÃłm": 7273,
      "arius": 7274,
      "Ġrob": 7275,
      "ĠVÅ©ng": 7276,
      "emat": 7277,
      "team": 7278,
      "ĠÄĳá»¥ng": 7279,
      "ĠJong": 7280,
      "Ġláº¥p": 7281,
      "ĠtÃ³m": 7282,
      "ĠThÃ¡c": 7283,
      "ako": 7284,
      "ĠPolypod": 7285,
      "ĠDae": 7286,
      "Ġhi": 7287,
      "ĠThÃºc": 7288,
      "arin": 7289,
      "ating": 7290,
      "Äħ": 7291,
      "ĠFil": 7292,
      "åİ¿": 7293,
      "Ġ73": 7294,
      "Ġrá»Ĺng": 7295,
      "New": 7296,
      "asia": 7297,
      "eople": 7298,
      "ĠRi": 7299,
      "ĠMix": 7300,
      "Ä±": 7301,
      "ĠGord": 7302,
      "ips": 7303,
      "ukh": 7304,
      "ĠPhao": 7305,
      "annel": 7306,
      "ĠAlfred": 7307,
      "ĠPter": 7308,
      "ĠChang": 7309,
      "thal": 7310,
      "ĠngÃłi": 7311,
      "NÄĲ": 7312,
      "ĠOt": 7313,
      "order": 7314,
      "Ġenz": 7315,
      "ĠKá»ĭch": 7316,
      "ĠArn": 7317,
      "uguay": 7318,
      "ĠOf": 7319,
      "ĠcÆ°á»¡i": 7320,
      "ĠMr": 7321,
      "ĠLinux": 7322,
      "ĠVÃ¢y": 7323,
      "ĠtrÃłng": 7324,
      "Ġ1892": 7325,
      "ĠInstitute": 7326,
      "ĠSydney": 7327,
      "Ġ74": 7328,
      "Ġ1860": 7329,
      "ĠLaur": 7330,
      "ĠStudio": 7331,
      "ĠkhÃ¡t": 7332,
      "ĠTod": 7333,
      "ĠTáº§m": 7334,
      "enos": 7335,
      "ĠJess": 7336,
      "Ġrá»ķ": 7337,
      "illo": 7338,
      "Ġ08": 7339,
      "mas": 7340,
      "!\"": 7341,
      "ĠKore": 7342,
      "Ġwas": 7343,
      "US": 7344,
      "ĠBird": 7345,
      "book": 7346,
      "ĠmáºŃp": 7347,
      "ĠHD": 7348,
      "ĠSyn": 7349,
      "ĠTráº¡i": 7350,
      "ĠMikh": 7351,
      "ĠChan": 7352,
      "ĠDisc": 7353,
      "ĠEncyclopedia": 7354,
      "Ġap": 7355,
      "ĠSá»©c": 7356,
      "ĠvÃ¡ch": 7357,
      "Ġson": 7358,
      "Ġ81": 7359,
      "lins": 7360,
      "Ġ1758": 7361,
      "ĠháºŃn": 7362,
      "ĠgÃ¡c": 7363,
      "France": 7364,
      "Ġbass": 7365,
      "kt": 7366,
      "ĠSus": 7367,
      "ĠMiÃªn": 7368,
      "chá»ī": 7369,
      "ĠAlan": 7370,
      "ĠthiÃªng": 7371,
      "ucl": 7372,
      "usc": 7373,
      "ĠDown": 7374,
      "ĠUz": 7375,
      "BND": 7376,
      "Ġvs": 7377,
      "ĠAqu": 7378,
      "imi": 7379,
      "eti": 7380,
      "ĠDance": 7381,
      "ĠHub": 7382,
      "cess": 7383,
      "uter": 7384,
      "nhÃł": 7385,
      "ĠnhÆ°á»Ŀng": 7386,
      "atem": 7387,
      "ĠBiá»ĩt": 7388,
      "ĠGoth": 7389,
      "ĠDiá»ĩp": 7390,
      "anger": 7391,
      "ogn": 7392,
      "Ġphot": 7393,
      "ĠGabri": 7394,
      "ĠTony": 7395,
      "ĠLitva": 7396,
      "æĹ": 7397,
      "ĠTá»Ľi": 7398,
      "Ġquyáº¿n": 7399,
      "ĠBank": 7400,
      "oga": 7401,
      "QuáºŃn": 7402,
      "æ²": 7403,
      "ĠFrench": 7404,
      "ĠNy": 7405,
      "ikh": 7406,
      "OR": 7407,
      "Ġthiá»ģn": 7408,
      "ĠRan": 7409,
      "Co": 7410,
      "Ġlá»¥a": 7411,
      "Ġ1859": 7412,
      "ĠXbox": 7413,
      "máº¥t": 7414,
      "ĠAR": 7415,
      "ĠFant": 7416,
      "á¹": 7417,
      "ĠTrÃ¡c": 7418,
      "báº£n": 7419,
      "erus": 7420,
      "ĠKun": 7421,
      "oot": 7422,
      "rd": 7423,
      "ĠHun": 7424,
      "ĠLÃ¢n": 7425,
      "ĠSzcz": 7426,
      "ĠDoc": 7427,
      "ĠAndre": 7428,
      "Ġcua": 7429,
      "DS": 7430,
      "ological": 7431,
      "ĠAntonio": 7432,
      "Re": 7433,
      "á»ĳp": 7434,
      "ĠCS": 7435,
      "Ġ99": 7436,
      "éĽ": 7437,
      "ĠTráº¡m": 7438,
      "Ġcomp": 7439,
      "ĠPokÃ©mon": 7440,
      "mes": 7441,
      "Ġhá»¥t": 7442,
      "ĠStates": 7443,
      "1986": 7444,
      "ĠMiy": 7445,
      "ĠRoger": 7446,
      "fa": 7447,
      "rai": 7448,
      "ĠnhiÃªu": 7449,
      "ĠMarx": 7450,
      "AL": 7451,
      "thÃłnh": 7452,
      "ĠAmazon": 7453,
      "Ġ97": 7454,
      "éĩ": 7455,
      "ĠhÆ°á»Ľc": 7456,
      "Ġ96": 7457,
      "Ġball": 7458,
      "ĠBuá»ķi": 7459,
      "ĠLie": 7460,
      "feld": 7461,
      "aron": 7462,
      "Ġcá»į": 7463,
      "ĠWhit": 7464,
      "var": 7465,
      "ĠPac": 7466,
      "ĠBec": 7467,
      "ÅĦski": 7468,
      "ĠNgáº¡n": 7469,
      "ĠMatt": 7470,
      "Ġre": 7471,
      "ĠAhm": 7472,
      "ĠJay": 7473,
      "awi": 7474,
      "ĠÐľ": 7475,
      "ĠNow": 7476,
      "ĠUruguay": 7477,
      "cy": 7478,
      "åº": 7479,
      "ll": 7480,
      "ĠKhÃºc": 7481,
      "rix": 7482,
      "Ġtháº§u": 7483,
      "ĠGS": 7484,
      "ĠFest": 7485,
      "Ġtá»ĵi": 7486,
      "ĠAlgÃ©rie": 7487,
      "folk": 7488,
      "azine": 7489,
      "Ġtáº£n": 7490,
      "Ġ71": 7491,
      "Ġ1888": 7492,
      "ĠRol": 7493,
      "avy": 7494,
      "ĠCá»ĳt": 7495,
      "ĠJane": 7496,
      "utan": 7497,
      "ĠTwo": 7498,
      "oides": 7499,
      "Ġ78": 7500,
      "Ġ1882": 7501,
      "ĠCape": 7502,
      "ĠWang": 7503,
      "æĪ": 7504,
      "ĠNhiáº¿p": 7505,
      "dom": 7506,
      "ĠFred": 7507,
      "1987": 7508,
      "ĠNgÃłi": 7509,
      "ĠHamilton": 7510,
      "ĠTab": 7511,
      "Ġ700": 7512,
      "ĠBáº§u": 7513,
      "ĠPic": 7514,
      "seed": 7515,
      "ĠResearch": 7516,
      "ĠBai": 7517,
      "ĠAM": 7518,
      "ĠBangkok": 7519,
      "Ġ1875": 7520,
      "ĠIceland": 7521,
      "ĠTrÃ¹ng": 7522,
      "ĠKazakhstan": 7523,
      "DE": 7524,
      "edge": 7525,
      "Å¾": 7526,
      "ĠPod": 7527,
      "Ġ1850": 7528,
      "Ġall": 7529,
      "ĠVel": 7530,
      "iden": 7531,
      "ĠlÃ£i": 7532,
      "ĠÄĳáº¯t": 7533,
      "Ġváº¯c": 7534,
      "ĠTá»ĳc": 7535,
      "iÃ³n": 7536,
      "ĠFranÃ§": 7537,
      "ĠOh": 7538,
      "ĠMatth": 7539,
      "Ð¿": 7540,
      "ĠVit": 7541,
      "ĠChern": 7542,
      "ender": 7543,
      "Ġnghiá»ĩn": 7544,
      "Ġ1871": 7545,
      "ĠSalv": 7546,
      "è¡": 7547,
      "ĠBack": 7548,
      "ĠLady": 7549,
      "iflor": 7550,
      "ĠMÃ¼nchen": 7551,
      "acy": 7552,
      "Ġ110": 7553,
      "HÃł": 7554,
      "aze": 7555,
      "mund": 7556,
      "ĠOst": 7557,
      "Ġthiáº¿p": 7558,
      "Ġkhoai": 7559,
      "sol": 7560,
      "Ġrep": 7561,
      "Ġtiáº¿c": 7562,
      "Äĳá»ĵng": 7563,
      "uage": 7564,
      "ven": 7565,
      "Ġ1864": 7566,
      "ĠSwift": 7567,
      "Ġ1886": 7568,
      "ĠRico": 7569,
      "ĠbÃ³c": 7570,
      "ĠCanh": 7571,
      "Ġ101": 7572,
      "ĠBengal": 7573,
      "NG": 7574,
      "ĠNASA": 7575,
      "ĠMá»įi": 7576,
      "onym": 7577,
      "Ġ1863": 7578,
      "ĠUkraine": 7579,
      "ĠShip": 7580,
      "ĠDark": 7581,
      "ĠGirls": 7582,
      "chin": 7583,
      "Ġkhuáº¥t": 7584,
      "ĠMats": 7585,
      "ĠVin": 7586,
      "uzia": 7587,
      "ĠdÄ©": 7588,
      "Ed": 7589,
      "ĠÄĳáº±ng": 7590,
      "Ġform": 7591,
      "Ġme": 7592,
      "TM": 7593,
      "ĠxÃł": 7594,
      "sin": 7595,
      "ĠÃ¡": 7596,
      "ĠAFC": 7597,
      "ĠRome": 7598,
      "Ġkiá»ģm": 7599,
      "ĠNGC": 7600,
      "ĠNhÃ¬n": 7601,
      "'.": 7602,
      "KhÃ´ng": 7603,
      "owell": 7604,
      "Ġlist": 7605,
      "rum": 7606,
      "Ġ00": 7607,
      "ambia": 7608,
      "à¸£": 7609,
      "gio": 7610,
      "Gro": 7611,
      "ĠlÃ¹ng": 7612,
      "ĠTuÃ¢n": 7613,
      "ĠWim": 7614,
      "Ġhiá»ģn": 7615,
      "Ġnháºµn": 7616,
      "ãĥ³": 7617,
      "ĠMaroc": 7618,
      "epp": 7619,
      "phorbia": 7620,
      "ĠNu": 7621,
      "ĠThÃªm": 7622,
      "ÅŁ": 7623,
      "ĠNá»ģn": 7624,
      "uynh": 7625,
      "orf": 7626,
      "Ġlá»ģ": 7627,
      "ness": 7628,
      "ÐµÑĢ": 7629,
      "ĠDá»±a": 7630,
      "onto": 7631,
      "ĠDragon": 7632,
      "ĠUs": 7633,
      "uez": 7634,
      "ĠNorfolk": 7635,
      "GS": 7636,
      "aza": 7637,
      "fr": 7638,
      "ĠNATO": 7639,
      "ĠOS": 7640,
      "ĠATP": 7641,
      "mit": 7642,
      "ĠForm": 7643,
      "ĠÄĲi": 7644,
      "nie": 7645,
      "ĠPel": 7646,
      "ĠMain": 7647,
      "ĠSáº¯c": 7648,
      "ĠQatar": 7649,
      "ĠMiller": 7650,
      "ĠChiáº¿t": 7651,
      "</": 7652,
      "tÆ°Æ¡ng": 7653,
      "asu": 7654,
      "thuá»Ļc": 7655,
      "ĠÃģp": 7656,
      "eroon": 7657,
      "edo": 7658,
      "ĠÅł": 7659,
      "asi": 7660,
      "ulu": 7661,
      "ĠPhiladel": 7662,
      "Ġsil": 7663,
      "ĠchÃ¬": 7664,
      "Ġnig": 7665,
      "imus": 7666,
      "á»¥t": 7667,
      "ĠIvan": 7668,
      "ĠQuyá»ĥn": 7669,
      "Ġfile": 7670,
      "Ġngáº¯m": 7671,
      "DIS": 7672,
      "Ġ84": 7673,
      "ME": 7674,
      "ĠWarner": 7675,
      "Ġnháº¯n": 7676,
      "ĠEU": 7677,
      "ĠOw": 7678,
      "äºº": 7679,
      "ĠBrook": 7680,
      "rary": 7681,
      "chan": 7682,
      "Ġse": 7683,
      "ĠDyn": 7684,
      "ĠNgá»±a": 7685,
      "Ġop": 7686,
      "Ġ83": 7687,
      "ĠÂ«": 7688,
      "thes": 7689,
      "abi": 7690,
      "Ġláº¯m": 7691,
      "ĠTuyá»ģn": 7692,
      "arum": 7693,
      "å¥": 7694,
      "ĠKevin": 7695,
      "zan": 7696,
      "idi": 7697,
      "uru": 7698,
      "ĠSem": 7699,
      "rap": 7700,
      "ĠTÃ¡i": 7701,
      "Ð¸Ð½": 7702,
      "1985": 7703,
      "idth": 7704,
      "ĠChristopher": 7705,
      "midt": 7706,
      "ĠPit": 7707,
      "cÅ©ng": 7708,
      "Ġ1881": 7709,
      "ĠAlbania": 7710,
      "ĠAlaska": 7711,
      "ĠBour": 7712,
      "ĠNord": 7713,
      "ĠThÃ´n": 7714,
      "ĠGruzia": 7715,
      "ĠCann": 7716,
      "ĠKav": 7717,
      "ĠRider": 7718,
      "ights": 7719,
      "ĠNan": 7720,
      "ĠThá»Ľi": 7721,
      "ÃĤ": 7722,
      "Ġ1887": 7723,
      "ĠLawrence": 7724,
      "Ġstud": 7725,
      "Ġvá»Ļi": 7726,
      "Ġ1861": 7727,
      "anthus": 7728,
      "Ġradio": 7729,
      "zawa": 7730,
      "Ġ82": 7731,
      "Ġ98": 7732,
      "ĠWWE": 7733,
      "oba": 7734,
      "ĠCyr": 7735,
      "ĠRose": 7736,
      "ĠSea": 7737,
      "mir": 7738,
      "Pr": 7739,
      "ĠChia": 7740,
      "ĠChurch": 7741,
      "ĠKab": 7742,
      "ĠWater": 7743,
      "nus": 7744,
      "ĠWeek": 7745,
      "Ġ79": 7746,
      "CÃ´ng": 7747,
      "Tá»ķng": 7748,
      "ĠAdams": 7749,
      "Ġcr": 7750,
      "ĠHok": 7751,
      "fe": 7752,
      "ĠRain": 7753,
      "ĠnÆ°Æ¡ng": 7754,
      "ware": 7755,
      "alem": 7756,
      "ĠProv": 7757,
      "ĠNorm": 7758,
      "Ġlá»Ļi": 7759,
      "ĠGrande": 7760,
      "huyá»ĩn": 7761,
      "ĠMits": 7762,
      "ĠLet": 7763,
      "ĠGlobal": 7764,
      "ĠgÃ¡nh": 7765,
      "ĠOver": 7766,
      "Ġcacbon": 7767,
      "Ġ1884": 7768,
      "ĠâĢĺ": 7769,
      "ĠGioan": 7770,
      "ĠVeg": 7771,
      "Ġsáº¥u": 7772,
      "ĠCameroon": 7773,
      "Ġ1866": 7774,
      "ĠShah": 7775,
      "ĠPhiladelphia": 7776,
      "esar": 7777,
      "ĠTum": 7778,
      "ĠEuropa": 7779,
      "Ġintern": 7780,
      "ĠPil": 7781,
      "ĠthÃŃnh": 7782,
      "ĠVolume": 7783,
      "Ġ1878": 7784,
      "Ġuá»·": 7785,
      "hai": 7786,
      "ĠMá»Ľi": 7787,
      "otes": 7788,
      "sá»ĳ": 7789,
      "ierra": 7790,
      "ĠLast": 7791,
      "ĠDh": 7792,
      ":(": 7793,
      "rÃ´": 7794,
      "Ã¥": 7795,
      "onder": 7796,
      "ĠsÆ°Æ¡ng": 7797,
      "ĠGÃ²": 7798,
      "1979": 7799,
      "ĠDend": 7800,
      "NQ": 7801,
      "Gu": 7802,
      "esliga": 7803,
      "ĠngÆ¡i": 7804,
      "Ġtá»ĥ": 7805,
      "ĠCav": 7806,
      "ĠÄĲoan": 7807,
      "Ġ130": 7808,
      "ĠHad": 7809,
      "elson": 7810,
      "ĠTet": 7811,
      "ĠKas": 7812,
      "eus": 7813,
      "ocal": 7814,
      "ĠCentre": 7815,
      "Ġmáº¿n": 7816,
      "Ex": 7817,
      "ĠBis": 7818,
      "elopment": 7819,
      "Ġchá»įc": 7820,
      "ĠInv": 7821,
      "ĠÄĳam": 7822,
      "ible": 7823,
      "omic": 7824,
      "á»£n": 7825,
      "å¼": 7826,
      "atory": 7827,
      "ĠCher": 7828,
      "anian": 7829,
      "ĠHell": 7830,
      "Ġnghiá»ĩt": 7831,
      "ĠVoiv": 7832,
      "ĠtrÃ¡n": 7833,
      "Ġsen": 7834,
      "ĠhÃ²": 7835,
      "ĠRiÃªng": 7836,
      "osaurus": 7837,
      "çļĩ": 7838,
      "zona": 7839,
      "ĠRiver": 7840,
      "ĠFord": 7841,
      "ĠRet": 7842,
      "ĠKrym": 7843,
      "lu": 7844,
      "Ġnguyá»ĩt": 7845,
      "ÙĦ": 7846,
      "ĠYe": 7847,
      "Ġsim": 7848,
      "Ġdá»ĳi": 7849,
      "uga": 7850,
      "ĠÄĳiÃªn": 7851,
      "Ã¨s": 7852,
      "ĠMississ": 7853,
      "alk": 7854,
      "usic": 7855,
      "ĠFact": 7856,
      "atemala": 7857,
      "tha": 7858,
      "Ġchay": 7859,
      "ĠWol": 7860,
      "Ð¾Ð»": 7861,
      "atherine": 7862,
      "ĠPass": 7863,
      "oya": 7864,
      "zen": 7865,
      "Ġsá»į": 7866,
      "eps": 7867,
      "CT": 7868,
      "ĠMá»ĳi": 7869,
      "ĠAK": 7870,
      "ĠKá»µ": 7871,
      "ĠChÃ³": 7872,
      "Ġ360": 7873,
      "opus": 7874,
      "Î¿": 7875,
      "ĠCant": 7876,
      "Ġbá»ĥ": 7877,
      "wer": 7878,
      "ĠNgá»¯": 7879,
      "ĠtrÆ°á»Ľng": 7880,
      "ĠBÃłng": 7881,
      "ĠBroad": 7882,
      "ĠgiÆ°á»Ŀng": 7883,
      "RI": 7884,
      "ĠchÃ¹m": 7885,
      "ĠNghiÃªm": 7886,
      "cá»§a": 7887,
      "elf": 7888,
      "ĠJak": 7889,
      "ection": 7890,
      "åĮº": 7891,
      "TÃ¢y": 7892,
      "TIT": 7893,
      "Ġant": 7894,
      "ĠNhÃ¬": 7895,
      "ĠFrederick": 7896,
      "Ġten": 7897,
      "usta": 7898,
      "ĠIns": 7899,
      "ĠGiáº£n": 7900,
      "PLAY": 7901,
      "ĠSÃ¡p": 7902,
      "ieg": 7903,
      "ĠthÃ³i": 7904,
      "Ġ1879": 7905,
      "orph": 7906,
      "ĠXÃ¡c": 7907,
      "Ġfan": 7908,
      "ĠOtto": 7909,
      "Ġbáº§y": 7910,
      "Ġ87": 7911,
      "ĠKiáº¿m": 7912,
      "Ġabout": 7913,
      "ĠSpecial": 7914,
      "ĠTrÃłng": 7915,
      "ĠGill": 7916,
      "ĠBog": 7917,
      "tá»īnh": 7918,
      "odeship": 7919,
      "Ľn": 7920,
      "ĠMichigan": 7921,
      "ĠSeb": 7922,
      "ĠÄĲáº±ng": 7923,
      "ĠRap": 7924,
      "ĠJamaica": 7925,
      "Ġest": 7926,
      "ĠDuá»ĩ": 7927,
      "bourne": 7928,
      "ĠGol": 7929,
      "ĠTrÆ°ng": 7930,
      "ĠUm": 7931,
      "ipe": 7932,
      "ĠÃºt": 7933,
      "ĠTuyá»ĥn": 7934,
      "ED": 7935,
      "ĠTriá»ĥn": 7936,
      "TITLE": 7937,
      "Ġrung": 7938,
      "iles": 7939,
      "DISPLAY": 7940,
      "ĠThÃ´i": 7941,
      "ĠDS": 7942,
      "DISPLAYTITLE": 7943,
      "ĠGam": 7944,
      "ĠFer": 7945,
      "ipes": 7946,
      "ĠMuhammad": 7947,
      "ĠKum": 7948,
      "Ġres": 7949,
      "ĠTrá»Ł": 7950,
      "Ġpage": 7951,
      "ĠÄĳáº¿m": 7952,
      "Ġnatri": 7953,
      "ĠEuphorbia": 7954,
      "Ġbáº«y": 7955,
      "ĠFuji": 7956,
      "eki": 7957,
      "ĠDigital": 7958,
      "ĠMississippi": 7959,
      "ĠdáºŃp": 7960,
      "Ġrá»¥ng": 7961,
      "ĠAj": 7962,
      "ĠGang": 7963,
      "urs": 7964,
      "ĠBruce": 7965,
      "ĠráºŃm": 7966,
      "ĠRel": 7967,
      "ĠStand": 7968,
      "Ð°ÑĢ": 7969,
      "Ġuá»ĳn": 7970,
      "ĠNorman": 7971,
      "zant": 7972,
      "ĠGÃł": 7973,
      "ĠFul": 7974,
      "ĠGuatemala": 7975,
      "TO": 7976,
      "Æ¯": 7977,
      "1984": 7978,
      "Ġmel": 7979,
      "ĠkhoÃ¡c": 7980,
      "ĠHáº¡o": 7981,
      "ĠBáº¡n": 7982,
      "ĠNhan": 7983,
      "eston": 7984,
      "ĠPedro": 7985,
      "stad": 7986,
      "El": 7987,
      "Å¼": 7988,
      "otr": 7989,
      "Ġnáº¿p": 7990,
      "Ġráº¯c": 7991,
      "ĠUBND": 7992,
      "ĠHous": 7993,
      "ĠAbb": 7994,
      "ĠlÃ¡ng": 7995,
      "ĠPhaolÃ´": 7996,
      "Ġni": 7997,
      "ĠKhanh": 7998,
      "idad": 7999,
      "etto": 8000,
      "ĠÐĴ": 8001,
      "ĠVoivodeship": 8002,
      "ĠKin": 8003,
      "key": 8004,
      "ĠLáº¡nh": 8005,
      "PA": 8006,
      "burn": 8007,
      "ĠtrÆ¡n": 8008,
      "ĠKáº»": 8009,
      "ogo": 8010,
      "ĠSA": 8011,
      "ĠDao": 8012,
      "ĠJust": 8013,
      "Ġtáº¡ng": 8014,
      "ulata": 8015,
      "))": 8016,
      "kaz": 8017,
      "Ãģ": 8018,
      "urai": 8019,
      "ouri": 8020,
      "day": 8021,
      "Ġmá»ĭ": 8022,
      "ĠBÃ£i": 8023,
      "yland": 8024,
      "ĠNH": 8025,
      "ĠAlice": 8026,
      "ĠBundesliga": 8027,
      "fish": 8028,
      "mo": 8029,
      "ĠIX": 8030,
      "reen": 8031,
      "ĠAgr": 8032,
      "ering": 8033,
      "ĠBorneo": 8034,
      "arg": 8035,
      "Hung": 8036,
      "bul": 8037,
      "kai": 8038,
      "ĠIch": 8039,
      "Ġ1873": 8040,
      "Ġit": 8041,
      "ĠTáº¡o": 8042,
      "ĠNgá»±": 8043,
      "pur": 8044,
      "Ġxi": 8045,
      "ĠRá»«ng": 8046,
      "ĠDinh": 8047,
      "atha": 8048,
      "Ġkhiáº¿u": 8049,
      "ĠSay": 8050,
      "ĠUnder": 8051,
      "ĠLiá»ħu": 8052,
      "ĠMalta": 8053,
      "ĠSecond": 8054,
      "ĠSas": 8055,
      "ĠCross": 8056,
      "lands": 8057,
      "ĠLux": 8058,
      "ĠHaut": 8059,
      "Ġcá»ĵn": 8060,
      "phim": 8061,
      "ĠAirways": 8062,
      "bledon": 8063,
      "ĠLov": 8064,
      "omo": 8065,
      "Ġxinh": 8066,
      "ĠTamil": 8067,
      "Â·": 8068,
      "ĠAngola": 8069,
      "ĠchiÃªn": 8070,
      "ĠMind": 8071,
      "ugo": 8072,
      "Ġ1865": 8073,
      "ĠxÃ´ng": 8074,
      "ĠPhÃª": 8075,
      "ĠProt": 8076,
      "ĠbÃ¡i": 8077,
      "ĠUSA": 8078,
      "ĠNatural": 8079,
      "ĠEstonia": 8080,
      "ĠÄĲá»īnh": 8081,
      "ĠãĢ": 8082,
      "onne": 8083,
      "Ġ1862": 8084,
      "ĠKamen": 8085,
      "ĠNev": 8086,
      "Ġluyáº¿n": 8087,
      "ĠRaf": 8088,
      "istry": 8089,
      "Ġthat": 8090,
      "ĠVÃłi": 8091,
      "inese": 8092,
      "ĠSÃ¡t": 8093,
      "Ġchuá»Ļng": 8094,
      "ĠBaltic": 8095,
      "ĠLad": 8096,
      "ĠRyan": 8097,
      "à¸Ļ": 8098,
      "ĠSzczec": 8099,
      "rough": 8100,
      "Ġham": 8101,
      "ĠChannel": 8102,
      "ĠTed": 8103,
      "ĠSlam": 8104,
      "ĠKennedy": 8105,
      "ĠLag": 8106,
      "ĠYear": 8107,
      "LV": 8108,
      "ĠFranz": 8109,
      "ĠTher": 8110,
      "Ġhit": 8111,
      "itis": 8112,
      "1980": 8113,
      "iformes": 8114,
      "ĠLav": 8115,
      "erdin": 8116,
      "ĠTwitter": 8117,
      "HoÃłng": 8118,
      "ĠJohannes": 8119,
      "furt": 8120,
      "Ġkhuynh": 8121,
      "ĠLis": 8122,
      "lie": 8123,
      "ĠThuyáº¿t": 8124,
      "ĠAer": 8125,
      "Ġdai": 8126,
      "unct": 8127,
      "BO": 8128,
      "ĠChuyá»ĩn": 8129,
      "ĠGran": 8130,
      "ThÃ¡i": 8131,
      "1982": 8132,
      "Ġvir": 8133,
      "Ã´mÃ©t": 8134,
      "issa": 8135,
      "ĠtrÆ°a": 8136,
      "ĠQueensland": 8137,
      "allen": 8138,
      "ĠFoundation": 8139,
      "ĠWimbledon": 8140,
      "ĠSolomon": 8141,
      "ĠBaker": 8142,
      "cÃ¹ng": 8143,
      "Ġmá»ıi": 8144,
      "ĠhÃ£n": 8145,
      "Ġret": 8146,
      "Ġ1877": 8147,
      "ĠNin": 8148,
      "Ġbá»Ļc": 8149,
      "ĠBia": 8150,
      "ĠthiÃªu": 8151,
      "ĠAud": 8152,
      "Ãºn": 8153,
      "Ġ86": 8154,
      "ĠGiá»Ŀ": 8155,
      "ĠSlav": 8156,
      "ities": 8157,
      "adal": 8158,
      "thá»Ŀi": 8159,
      "ĠÄĳÃłnh": 8160,
      "Ġonline": 8161,
      "Huyá»ĩn": 8162,
      "ÃĶ": 8163,
      "Ġlá»±u": 8164,
      "ĠXanh": 8165,
      "ĠGuard": 8166,
      "LA": 8167,
      "Ġsam": 8168,
      "Ġsulf": 8169,
      "ĠGyeong": 8170,
      "Ġtruáº¥t": 8171,
      "Ġ1868": 8172,
      "ĠRab": 8173,
      "ĠhoÃłi": 8174,
      "Ġnhá»ĳt": 8175,
      "ĠBuck": 8176,
      "ĠInformation": 8177,
      "lyn": 8178,
      "ĠSey": 8179,
      "ĠNÃł": 8180,
      "ĠExp": 8181,
      "ĠLudwig": 8182,
      "Ġtháº¥u": 8183,
      "ĠChild": 8184,
      "ĠJar": 8185,
      "ĠDá»¥c": 8186,
      "ĠUN": 8187,
      "rier": 8188,
      "ibia": 8189,
      "amburg": 8190,
      "Ġ1883": 8191,
      "ĠPerry": 8192,
      "ĠÄĳinh": 8193,
      "ĠMÃª": 8194,
      "ient": 8195,
      "icum": 8196,
      "ĠWith": 8197,
      "ĠLombardia": 8198,
      "ĠgÃ¡n": 8199,
      "ĠquyÃªn": 8200,
      "fia": 8201,
      "ĠNÃ´": 8202,
      "Ġë": 8203,
      "ĠBey": 8204,
      "giá»Ŀ": 8205,
      "ĠKháº£o": 8206,
      "ĠMikhail": 8207,
      "ĠDak": 8208,
      "ĠTS": 8209,
      "ends": 8210,
      "ĠbÃ¡u": 8211,
      "ĠTitan": 8212,
      "ĠniÃªm": 8213,
      "ĠLá»ĩnh": 8214,
      "ĠChen": 8215,
      "ĠPomerania": 8216,
      "ampton": 8217,
      "ĠâĪĴ": 8218,
      "ĠPad": 8219,
      "ĠHoward": 8220,
      "uil": 8221,
      "ference": 8222,
      "pi": 8223,
      "ĠWomen": 8224,
      "ĠBush": 8225,
      "roy": 8226,
      "ĠmÄĥng": 8227,
      "ĠSultan": 8228,
      "áĢ": 8229,
      "ĠWell": 8230,
      "Ã©d": 8231,
      "ĠMend": 8232,
      "ÑĨ": 8233,
      "ĠAre": 8234,
      "ĠCand": 8235,
      "ĠsÃ¹ng": 8236,
      "ĠMP": 8237,
      "ĠIsab": 8238,
      "ĠKhuÃª": 8239,
      "sia": 8240,
      "vir": 8241,
      "Ġdá»įn": 8242,
      "Ã¼l": 8243,
      "ophy": 8244,
      "yb": 8245,
      "Ã¦": 8246,
      "ĠMÃ³n": 8247,
      "Ġconc": 8248,
      "å¸Ĥ": 8249,
      "táº¡m": 8250,
      "ĠphÆ¡i": 8251,
      "oj": 8252,
      "ĠUzbek": 8253,
      "ĠDall": 8254,
      "dan": 8255,
      "Ġbre": 8256,
      "ĠFour": 8257,
      "ĠEarth": 8258,
      "Ġ1867": 8259,
      "ĠBernard": 8260,
      "Ġti": 8261,
      "Ġá»Ľt": 8262,
      "ĠLibya": 8263,
      "ĠSamuel": 8264,
      "ĠGolden": 8265,
      "icol": 8266,
      "ĠEdition": 8267,
      "opl": 8268,
      "eting": 8269,
      "ĠAur": 8270,
      "ipal": 8271,
      "Ã¶l": 8272,
      "ĠTenn": 8273,
      "oach": 8274,
      "ĠLept": 8275,
      "Ġtáº¡": 8276,
      "ĠKoch": 8277,
      "ĠÐ¿": 8278,
      "uca": 8279,
      "erl": 8280,
      "ĠConserv": 8281,
      "ĠSoph": 8282,
      "ĠBÃ¡nh": 8283,
      "ĠEcon": 8284,
      "ĠTol": 8285,
      ":#": 8286,
      "Ngh": 8287,
      "OC": 8288,
      "ĠSei": 8289,
      "oom": 8290,
      "å¦": 8291,
      "ĠBot": 8292,
      "aca": 8293,
      "Ġngu": 8294,
      "ĠNáºŃm": 8295,
      "ĠLenin": 8296,
      "Ġ1858": 8297,
      "Ġrev": 8298,
      "ature": 8299,
      "ĠRáº¥t": 8300,
      "opol": 8301,
      "ĠghÃ©": 8302,
      "ĠArizona": 8303,
      "ĠHorn": 8304,
      "aust": 8305,
      "rip": 8306,
      "ĠGray": 8307,
      "Asp": 8308,
      "ĠKhiáº¿t": 8309,
      "estra": 8310,
      "ĠSent": 8311,
      "ĠÂ½": 8312,
      "ĠByzant": 8313,
      "ĠbÃŃnh": 8314,
      "1981": 8315,
      "ĠKÃŃch": 8316,
      "ĠFigh": 8317,
      "ĠWalker": 8318,
      "lia": 8319,
      "ĠBra": 8320,
      "ĠMis": 8321,
      "Ġcáº¥y": 8322,
      "ĠlÃ¡nh": 8323,
      "edes": 8324,
      "ĠFerdin": 8325,
      "ĠStef": 8326,
      "Ġruá»ĵi": 8327,
      "Ġag": 8328,
      "Ġngáº·t": 8329,
      "ories": 8330,
      "Báº¯c": 8331,
      "Ġkn": 8332,
      "ĠGordon": 8333,
      "erc": 8334,
      "ymn": 8335,
      "ĠAnthony": 8336,
      "ĠTag": 8337,
      "ĠBenn": 8338,
      "Ġalb": 8339,
      "wald": 8340,
      "ĠLeop": 8341,
      "ĠMaxim": 8342,
      "ean": 8343,
      "ĠNgÆ°": 8344,
      "ĠAut": 8345,
      "Ġ(?": 8346,
      "ĠHoan": 8347,
      "ĠNass": 8348,
      "Ġmá»ķ": 8349,
      "Ġgiang": 8350,
      "ĠVat": 8351,
      "ĠReview": 8352,
      "phy": 8353,
      "ĠLá»ĳi": 8354,
      "ĠFranÃ§ois": 8355,
      "oyd": 8356,
      "Ġtambon": 8357,
      "Ġvit": 8358,
      "Ġ1876": 8359,
      "stone": 8360,
      "ether": 8361,
      "Ġthá»§ng": 8362,
      "ON": 8363,
      "Ġtáº·c": 8364,
      "ĠHav": 8365,
      "ä¸Ń": 8366,
      "Ġnu": 8367,
      "ĠThat": 8368,
      "ĠSP": 8369,
      "tháº¿": 8370,
      "ĠSchmidt": 8371,
      "igo": 8372,
      "ĠToronto": 8373,
      "ĠThiá»ĥm": 8374,
      "ĠEuropean": 8375,
      "ĠThis": 8376,
      "1983": 8377,
      "ĠWikipedia": 8378,
      "ĠkilÃ´mÃ©t": 8379,
      "ĠHas": 8380,
      "ĠMoore": 8381,
      "cheon": 8382,
      "ĠKÅį": 8383,
      "BI": 8384,
      "Ġang": 8385,
      "ĠDet": 8386,
      "Ð¸Ð¹": 8387,
      "Ġcolspan": 8388,
      "ĠBae": 8389,
      "ĠhÆ°Æ¡u": 8390,
      "icola": 8391,
      "ĠGiÃªsu": 8392,
      "Man": 8393,
      "ĠthÆ°a": 8394,
      "Ġláº±n": 8395,
      "ĠPhilipin": 8396,
      "auc": 8397,
      "ç¥": 8398,
      "ĠBÃłnh": 8399,
      "ĠIndia": 8400,
      "Ġbr": 8401,
      "Ġrá»ĩt": 8402,
      "Ġà¸": 8403,
      "ĠlÃ³t": 8404,
      "Ġthá»ģ": 8405,
      "Ġãĥ": 8406,
      "ĠÑģ": 8407,
      "Ġray": 8408,
      "EE": 8409,
      "Ã¡s": 8410,
      "ĠHome": 8411,
      "ĠMichel": 8412,
      "GP": 8413,
      "ä¼": 8414,
      "ĠLinn": 8415,
      "ĠModern": 8416,
      "ĠFrom": 8417,
      "oca": 8418,
      "Ġmá»ĩt": 8419,
      "uni": 8420,
      "Bá»Ļ": 8421,
      "Ġnung": 8422,
      "ĠColorado": 8423,
      "onna": 8424,
      "ĠPatrick": 8425,
      "ĠMaster": 8426,
      "ĠFle": 8427,
      "ĠÄĳoan": 8428,
      "Ġeds": 8429,
      "ĠLibrary": 8430,
      "iba": 8431,
      "ĠxÄĥng": 8432,
      "ĠCook": 8433,
      "Ġhistory": 8434,
      "du": 8435,
      "ĠlÆ°á»£n": 8436,
      "Äĳáº·c": 8437,
      "ĠMosc": 8438,
      "idelberg": 8439,
      "ĠPha": 8440,
      "ĠRum": 8441,
      "ĠHeinrich": 8442,
      "cÃ´ng": 8443,
      "ĠIGN": 8444,
      "ĠFerr": 8445,
      "ĠMS": 8446,
      "ogue": 8447,
      "car": 8448,
      "ĠKol": 8449,
      "Æ°á»Łi": 8450,
      "ahn": 8451,
      "ĠXi": 8452,
      "ĠNghá»ģ": 8453,
      "ĠFun": 8454,
      "ĠÄĳÃ¨o": 8455,
      "Ġsol": 8456,
      "ĠRand": 8457,
      "ĠOg": 8458,
      "ĠArkansas": 8459,
      "ennes": 8460,
      "ĠCel": 8461,
      "ÏĤ": 8462,
      "ĠIz": 8463,
      "NgÃły": 8464,
      "Ġsá»§ng": 8465,
      "ĠNgÃłnh": 8466,
      "GM": 8467,
      "alth": 8468,
      "ĠÐ²": 8469,
      "cia": 8470,
      "ĠPhot": 8471,
      "ĠNgu": 8472,
      "ĠPeters": 8473,
      "ç¾": 8474,
      "ĠLepid": 8475,
      "Ġ140": 8476,
      "Ġao": 8477,
      "ĠFinal": 8478,
      "ĠCentral": 8479,
      "ĠDá»¯": 8480,
      "ĠbÆ¡m": 8481,
      "ĠVilla": 8482,
      "Ġsum": 8483,
      "Ġ1848": 8484,
      "ĠDef": 8485,
      "Ġá»Ĳ": 8486,
      "overn": 8487,
      "1976": 8488,
      "ĠMovie": 8489,
      "ĠFestival": 8490,
      "Ġ...": 8491,
      "ĠTÃ³m": 8492,
      "nick": 8493,
      "Ġ92": 8494,
      "ĠDictionary": 8495,
      "Ġ1874": 8496,
      "ĠSongs": 8497,
      "ĠElst": 8498,
      "ĠNay": 8499,
      "PhÃ¡p": 8500,
      "ĠMargaret": 8501,
      "æµ": 8502,
      "ĠTrav": 8503,
      "ĠDiÃªm": 8504,
      "ĠlÄĥn": 8505,
      "Ġxáº£": 8506,
      "ĠCháº³ng": 8507,
      "ĠStein": 8508,
      "Ġná»ĵi": 8509,
      "Ġsingle": 8510,
      "ists": 8511,
      "ypter": 8512,
      "åĬ": 8513,
      "Ġnhá»¥c": 8514,
      "ĠCÃ¡n": 8515,
      "ĠEin": 8516,
      "ĠBet": 8517,
      "RA": 8518,
      "Ġnáº¯p": 8519,
      "ĠTrip": 8520,
      "esch": 8521,
      "viáº¿t": 8522,
      "Ġchiáº¿t": 8523,
      "ĠBeach": 8524,
      "ĠNapoli": 8525,
      "eca": 8526,
      "bre": 8527,
      "ĠbÃ¬": 8528,
      "ĠCiv": 8529,
      "Chiáº¿n": 8530,
      "Ġchá»ķi": 8531,
      "ĠFair": 8532,
      "ĠtoÃł": 8533,
      "ĠYemen": 8534,
      "odont": 8535,
      "ĠOct": 8536,
      "ChÃºng": 8537,
      "Ġthoáº£i": 8538,
      "Ġtrá»ħ": 8539,
      "ĠGai": 8540,
      "Ġeuro": 8541,
      "ĠSv": 8542,
      "imo": 8543,
      "opteridaceae": 8544,
      "ĠBun": 8545,
      "acia": 8546,
      "ĠHau": 8547,
      "ĠFranklin": 8548,
      "ĠTunisia": 8549,
      "ĠPun": 8550,
      "ĠhoÃłnh": 8551,
      "Ġrá»±c": 8552,
      "ĠMaz": 8553,
      "ĠOrig": 8554,
      "ĠMold": 8555,
      "ĠGri": 8556,
      "ĠEg": 8557,
      "Ġ105": 8558,
      "ĠGÃ¶": 8559,
      "Ġnang": 8560,
      "ĠChoi": 8561,
      "encia": 8562,
      "ĠKash": 8563,
      "ĠKiev": 8564,
      "ĠMario": 8565,
      "ĠxÃ´i": 8566,
      "ĠEss": 8567,
      "long": 8568,
      "Ð¸Ðº": 8569,
      "Ġgiá»ģng": 8570,
      "ĠGust": 8571,
      "Ġkhuáº¿ch": 8572,
      "%),": 8573,
      "uras": 8574,
      "Ġnovel": 8575,
      "ĠKha": 8576,
      "ĠAgrilus": 8577,
      "ĠLÃ´": 8578,
      "ĠThá»¥": 8579,
      "inop": 8580,
      "ril": 8581,
      "ĠmÃ£nh": 8582,
      "ĠLÅ©ng": 8583,
      "Bar": 8584,
      "uan": 8585,
      "FL": 8586,
      "har": 8587,
      "ĠDog": 8588,
      "Ġofficial": 8589,
      "ĠEngland": 8590,
      "ĠBle": 8591,
      "ĠIC": 8592,
      "ĠTáº¯c": 8593,
      "ĠHugh": 8594,
      "ĠRussell": 8595,
      "Ġ1857": 8596,
      "Ġdis": 8597,
      "Ġ93": 8598,
      "ĠCulture": 8599,
      "ĠSachsen": 8600,
      "ĠnÃ³n": 8601,
      "ï¼Į": 8602,
      "ĠngÃ¢m": 8603,
      "Ġhuynh": 8604,
      "OH": 8605,
      "ĠlÃ¡t": 8606,
      "gá»įi": 8607,
      "Ġkhinh": 8608,
      "ambique": 8609,
      "pin": 8610,
      "ĠrÃ¡p": 8611,
      "1978": 8612,
      "hiá»ĩn": 8613,
      "ĠTon": 8614,
      "ĠLord": 8615,
      "ĠHeidelberg": 8616,
      "hl": 8617,
      "ĠMidd": 8618,
      "ĠBros": 8619,
      "ĠFuj": 8620,
      "æĿİ": 8621,
      "ĠMit": 8622,
      "ayashi": 8623,
      "unes": 8624,
      "osus": 8625,
      "ĠrÃ£nh": 8626,
      "cript": 8627,
      "Ġflav": 8628,
      "lon": 8629,
      "åĪ": 8630,
      "ìĿ": 8631,
      "ĠGiov": 8632,
      "Ġnha": 8633,
      "Tá»©": 8634,
      "nheim": 8635,
      "ĠkhoÃ¡": 8636,
      "ouch": 8637,
      "kon": 8638,
      "Ġ89": 8639,
      "Tráº§n": 8640,
      "uj": 8641,
      "ĠBÆ°á»Ľc": 8642,
      "enev": 8643,
      "usalem": 8644,
      "ĠEt": 8645,
      "oki": 8646,
      "ĠShar": 8647,
      "ĠgÃµ": 8648,
      "Ġrub": 8649,
      "edd": 8650,
      "hir": 8651,
      "ĠLá»ĵng": 8652,
      "IP": 8653,
      "vn": 8654,
      "ification": 8655,
      "éķĩ": 8656,
      "Ad": 8657,
      "ĠField": 8658,
      "borough": 8659,
      "Ġtur": 8660,
      "Ġbá»ĵ": 8661,
      "ĠkhÃ©o": 8662,
      "ĠSoul": 8663,
      "iago": 8664,
      "Ġsáº£nh": 8665,
      "ĠtrÃ¹": 8666,
      "ĠJustin": 8667,
      "ĠGiáº¥y": 8668,
      "\":": 8669,
      "ĠKhiÃªm": 8670,
      "Ġsup": 8671,
      "ĠGib": 8672,
      "ĠDead": 8673,
      "ÅĻ": 8674,
      "ĠChrys": 8675,
      "Ġlá»Ļc": 8676,
      "ĠnhÃ´m": 8677,
      "ĠgÃ¬n": 8678,
      "ĠIll": 8679,
      "Ġtráº¯c": 8680,
      "ĠJang": 8681,
      "Ġblog": 8682,
      "xi": 8683,
      "kham": 8684,
      "ĠHum": 8685,
      "mont": 8686,
      "ĠSeg": 8687,
      "Ġgenus": 8688,
      "Ġ91": 8689,
      "aps": 8690,
      "ĠLub": 8691,
      "ĠOri": 8692,
      "ĠISO": 8693,
      "Ġ160": 8694,
      "ĠRic": 8695,
      "Ġ1836": 8696,
      "ĠãĤ": 8697,
      "1972": 8698,
      "ĠVá»£": 8699,
      "ĠDáº¡ng": 8700,
      "ĠSy": 8701,
      "ĠUá»·": 8702,
      "ige": 8703,
      "ĠPrince": 8704,
      "ĠRiv": 8705,
      "Ġrá»¡": 8706,
      "ĠPage": 8707,
      "Â»": 8708,
      "ĠHÃło": 8709,
      "ulin": 8710,
      "ĠCrow": 8711,
      "ĠThÃ¹y": 8712,
      "omm": 8713,
      "antic": 8714,
      "ĠRNA": 8715,
      "iro": 8716,
      "Ġdá»«a": 8717,
      "Ġ94": 8718,
      "ĠÃįt": 8719,
      "ĠvectÆ¡": 8720,
      "Ġtem": 8721,
      "ĠPir": 8722,
      "ĠMÄ©": 8723,
      "ĠRov": 8724,
      "1970": 8725,
      "ienne": 8726,
      "udd": 8727,
      "iness": 8728,
      "ĠUnion": 8729,
      "ĠXVI": 8730,
      "arte": 8731,
      "ĠQuay": 8732,
      "ĠHIV": 8733,
      "ĠKag": 8734,
      "ĠLine": 8735,
      "ĠCons": 8736,
      "ĠBenj": 8737,
      "ĠJerusalem": 8738,
      "amine": 8739,
      "ices": 8740,
      "ĠÄĳÃª": 8741,
      "ĠhÃ´i": 8742,
      "ĠSeine": 8743,
      "Ã±a": 8744,
      "ĠWestern": 8745,
      "ĠSingles": 8746,
      "ĠDryopteridaceae": 8747,
      "ĠOffice": 8748,
      "iad": 8749,
      "ÄĲÃ¢y": 8750,
      "Ġ1872": 8751,
      "Be": 8752,
      "ĠNewton": 8753,
      "ĠGuadal": 8754,
      "Ġrá»ĥ": 8755,
      "Ġcalci": 8756,
      "NT": 8757,
      "Ġmini": 8758,
      "ĠPhoen": 8759,
      "ĠEmpire": 8760,
      "Ġup": 8761,
      "ĠSig": 8762,
      "ĠDÃ£y": 8763,
      "ĠLeo": 8764,
      "Ġ1852": 8765,
      "ĠMonte": 8766,
      "Hz": 8767,
      "pat": 8768,
      "ĠHamburg": 8769,
      "embourg": 8770,
      "Ġná»©t": 8771,
      "Ġgá»ĳi": 8772,
      "apa": 8773,
      "ĠSumatra": 8774,
      "arat": 8775,
      "ĠMozambique": 8776,
      "ĠAfrica": 8777,
      "Ġyá»ĥm": 8778,
      "ĠÆ°á»Ľp": 8779,
      "Ġset": 8780,
      "ĠYoshi": 8781,
      "hiro": 8782,
      "ĠÐļ": 8783,
      "ĠSierra": 8784,
      "ĠLÆ°á»¡ng": 8785,
      "rag": 8786,
      "à½": 8787,
      "ĠchÃªnh": 8788,
      "Ġins": 8789,
      "ĠthuÃ´n": 8790,
      "itary": 8791,
      "ĠKhal": 8792,
      "ument": 8793,
      "lis": 8794,
      "ĠInwon": 8795,
      "ertallen": 8796,
      "ĠInwonertallen": 8797,
      "Ġpháº£": 8798,
      "ÐµÐ²": 8799,
      "ĠLÃłnh": 8800,
      "romis": 8801,
      "ĠKyoto": 8802,
      "ĠJulius": 8803,
      "Danh": 8804,
      "iner": 8805,
      "ĠHid": 8806,
      "ĠSzczecin": 8807,
      "ĠPoint": 8808,
      "vers": 8809,
      "ĠbáºŃn": 8810,
      "ĠBÃŃnh": 8811,
      "ĠRou": 8812,
      "ĠTVB": 8813,
      "ĠSá»©": 8814,
      "ĠxuÃ´i": 8815,
      "Ġchai": 8816,
      "ĠReb": 8817,
      "ĠMoscow": 8818,
      "ĠFree": 8819,
      "Ġdá»ĭu": 8820,
      "graph": 8821,
      "ĠnhÃłng": 8822,
      "ĠXá»©": 8823,
      "æĸĩ": 8824,
      "Ba": 8825,
      "ĠRoth": 8826,
      "Ġcay": 8827,
      "Ġsá»ĳc": 8828,
      "ĠThao": 8829,
      "fal": 8830,
      "ĠHoÃłnh": 8831,
      "Ġnhuá»Ļm": 8832,
      "atal": 8833,
      "ĠTas": 8834,
      "ĠMam": 8835,
      "ĠJunior": 8836,
      "ĠAsian": 8837,
      "ĠchÃ¡n": 8838,
      "Ġneut": 8839,
      "ĠGom": 8840,
      "ici": 8841,
      "Ġ),": 8842,
      "Ġnhai": 8843,
      "ĠRemix": 8844,
      "ĠPolypodiaceae": 8845,
      "SP": 8846,
      "ĠLake": 8847,
      "1973": 8848,
      "ThÃłnh": 8849,
      "ĠBart": 8850,
      "ĠhoÃ¡n": 8851,
      "etia": 8852,
      "oviÄĩ": 8853,
      "trol": 8854,
      "eer": 8855,
      "vai": 8856,
      "ophila": 8857,
      "Col": 8858,
      "ency": 8859,
      "ĠHat": 8860,
      "Ġmg": 8861,
      "ĠDum": 8862,
      "ĠDÃłn": 8863,
      "1968": 8864,
      "bs": 8865,
      "Ġkáº¹t": 8866,
      "ondo": 8867,
      "Ġtá»ĩp": 8868,
      "hu": 8869,
      "ĠGuam": 8870,
      "Ġsá»¹": 8871,
      "Ġkhá»ĳng": 8872,
      "ĠFur": 8873,
      "ussia": 8874,
      "fri": 8875,
      "ĠBomb": 8876,
      "Ġyáº¿t": 8877,
      "ĠngÃµ": 8878,
      "Ġkhiáº¿t": 8879,
      "ĠNhÃ£": 8880,
      "ĠNext": 8881,
      "ĠKrakÃ³w": 8882,
      "Chi": 8883,
      "young": 8884,
      "ancy": 8885,
      "ĠCit": 8886,
      "ĠSports": 8887,
      "ĠchÃły": 8888,
      "ĠTong": 8889,
      "Ġvá»Ľt": 8890,
      "ĠAbu": 8891,
      "Ġev": 8892,
      "ĠrÃ¨n": 8893,
      "ĠIA": 8894,
      "ĠMars": 8895,
      "ĠÄĳan": 8896,
      "ĠÃł": 8897,
      "ĠBá»Ļi": 8898,
      "ĠmÃ©p": 8899,
      "avan": 8900,
      "ĠPomeranian": 8901,
      "ĠFerdinand": 8902,
      "ĠMiáº¿u": 8903,
      "agar": 8904,
      "ĠNao": 8905,
      "ĠÄĳao": 8906,
      "Ġhá»įng": 8907,
      "Ġtext": 8908,
      "ĠFrances": 8909,
      "TáºŃp": 8910,
      "ĠCIA": 8911,
      "ĠJason": 8912,
      "izu": 8913,
      "ĠmÃło": 8914,
      "ĠLÃ´i": 8915,
      "iller": 8916,
      "ĠSchw": 8917,
      "ĠÅģ": 8918,
      "ĠSteven": 8919,
      "ĠNhung": 8920,
      "aver": 8921,
      "ĠDick": 8922,
      "Ġvers": 8923,
      "ĠMissouri": 8924,
      "ĠType": 8925,
      "Ġdáº»o": 8926,
      "illy": 8927,
      "yx": 8928,
      "ĠHend": 8929,
      "SO": 8930,
      "low": 8931,
      "Ġ1869": 8932,
      "ĠBiá»ĩn": 8933,
      "thia": 8934,
      "ĠZimb": 8935,
      "ĠGot": 8936,
      "Ġhoáº¡": 8937,
      "ĠRá»ĭa": 8938,
      "ogon": 8939,
      "ĠBurg": 8940,
      "dorf": 8941,
      "Wal": 8942,
      "ilo": 8943,
      "etz": 8944,
      "ĠColl": 8945,
      "ĠLucas": 8946,
      "ÈĻ": 8947,
      "khi": 8948,
      "Ġtháº¡c": 8949,
      "ĠZen": 8950,
      "ĠUniversal": 8951,
      "ĠSarah": 8952,
      "ĠDevelopment": 8953,
      "ĠHero": 8954,
      "cell": 8955,
      "Ġgáº£": 8956,
      "Ġ350": 8957,
      "Ã¨ze": 8958,
      "1969": 8959,
      "ĠMatthew": 8960,
      "ĠHouston": 8961,
      "ĠphÃ¡c": 8962,
      "ĠNoc": 8963,
      "ĠMorgan": 8964,
      "Ġrá»ī": 8965,
      "ĠMorris": 8966,
      "ben": 8967,
      "bell": 8968,
      "ĠRoch": 8969,
      "ÃĹ": 8970,
      "ĠSph": 8971,
      "ĠLáº¥y": 8972,
      "ĠDJ": 8973,
      "Phone": 8974,
      "fi": 8975,
      "Ġdec": 8976,
      "ĠPon": 8977,
      "ares": 8978,
      "ĠUzbekistan": 8979,
      "ä¿": 8980,
      "Ġgáº¯t": 8981,
      "ĠSug": 8982,
      "ĠÅļ": 8983,
      "Ġcá»Ľ": 8984,
      "Ġ1830": 8985,
      "abwe": 8986,
      "ornis": 8987,
      "Æ°Æ¡m": 8988,
      "zig": 8989,
      "oshima": 8990,
      "éĺ": 8991,
      "ĠAlc": 8992,
      "epid": 8993,
      "Ġdáº¡i": 8994,
      "ÄĲÃ´ng": 8995,
      "Ġgam": 8996,
      "ĠVá»įng": 8997,
      "ĠIntel": 8998,
      "reg": 8999,
      "Ġinternet": 9000,
      "MP": 9001,
      "Ġhao": 9002,
      "NÄĥm": 9003,
      "ĠDáº§n": 9004,
      "ĠManila": 9005,
      "HO": 9006,
      "ĠHunt": 9007,
      "vo": 9008,
      "ĠXu": 9009,
      "thor": 9010,
      "ĠCruz": 9011,
      "gart": 9012,
      "ĠDut": 9013,
      "ĠTá»ĳ": 9014,
      "ĠÐĲ": 9015,
      "VA": 9016,
      "Ġspin": 9017,
      "ĠPont": 9018,
      "shev": 9019,
      "ĠBrunei": 9020,
      "ĠGrant": 9021,
      "1974": 9022,
      "ĠForce": 9023,
      "ĠÄĳá»¥c": 9024,
      "ĠMarÃŃa": 9025,
      "ĠYuk": 9026,
      "dr": 9027,
      "ovsky": 9028,
      "Ġtiá»ĩm": 9029,
      "uti": 9030,
      "ĠÄĳáº¡c": 9031,
      "onso": 9032,
      "Ġtháº¥m": 9033,
      "ĠAki": 9034,
      "ĠCentury": 9035,
      "arts": 9036,
      "ĠcÃµi": 9037,
      "ĠÄĳÃ¹a": 9038,
      "onic": 9039,
      "isl": 9040,
      "ĠKot": 9041,
      "ĠTorino": 9042,
      "hist": 9043,
      "ĠCin": 9044,
      "awn": 9045,
      "Ġ1840": 9046,
      "ollo": 9047,
      "ĠFight": 9048,
      "ĠMunich": 9049,
      "ĠSicilia": 9050,
      "ĠLuis": 9051,
      "1965": 9052,
      "âĢĿ,": 9053,
      "sey": 9054,
      "ĠCov": 9055,
      "enzo": 9056,
      "Ġnai": 9057,
      "ĠMes": 9058,
      "attan": 9059,
      "araon": 9060,
      "Ġedition": 9061,
      "ĠSomme": 9062,
      "ĠKnow": 9063,
      "ĠDora": 9064,
      "ĠBeth": 9065,
      "ĠmÃ¡": 9066,
      "ĠÃį": 9067,
      "ĠStu": 9068,
      "ĠMig": 9069,
      "ĠDin": 9070,
      "Ġballad": 9071,
      "Ïģ": 9072,
      "ĠRow": 9073,
      "ĠCrist": 9074,
      "ĠÄĲáº¥u": 9075,
      "odia": 9076,
      "ĠGehr": 9077,
      "1977": 9078,
      "essee": 9079,
      "epis": 9080,
      "ĠGregory": 9081,
      "UB": 9082,
      "oceph": 9083,
      "Ġlogic": 9084,
      "táº¡i": 9085,
      "Ġbáº¡": 9086,
      "ĠHus": 9087,
      "ĠLaz": 9088,
      "ieu": 9089,
      "ĠAT": 9090,
      "ĠVil": 9091,
      "Ġ1846": 9092,
      "ĠGiuse": 9093,
      "Ġnot": 9094,
      "ĠHuman": 9095,
      "ĠBenjamin": 9096,
      "bol": 9097,
      "ĠBac": 9098,
      "Ġ1753": 9099,
      "Ġtro": 9100,
      "ĠrÅ©": 9101,
      "essa": 9102,
      "Ġprofile": 9103,
      "par": 9104,
      "æ±": 9105,
      "Thanh": 9106,
      "ĠTaj": 9107,
      "ĠBÃ©": 9108,
      "ĠCáº£m": 9109,
      "cÃ´": 9110,
      "aguay": 9111,
      "ĠAlexandria": 9112,
      "wait": 9113,
      "ĠCob": 9114,
      "ĠFamily": 9115,
      "Ġtáº¡c": 9116,
      "woo": 9117,
      "æī": 9118,
      "ĠÄĲáº¯c": 9119,
      "ĠPeople": 9120,
      "ĠÐ¸": 9121,
      "Ġ1854": 9122,
      "We": 9123,
      "ĠÐŁ": 9124,
      "chÃŃnh": 9125,
      "ĠÄĲiá»ĩp": 9126,
      "ĠmÃ¡c": 9127,
      "ĠMarch": 9128,
      "130": 9129,
      "escens": 9130,
      "Ġngá»¥y": 9131,
      "ĠLyn": 9132,
      "aude": 9133,
      "ĠSouthern": 9134,
      "ahl": 9135,
      "nghÄ©a": 9136,
      "Ġrobot": 9137,
      "ĠDiÃªu": 9138,
      "ĠYong": 9139,
      "Ġcá»Ńu": 9140,
      "ĠWarszawa": 9141,
      "ET": 9142,
      "fu": 9143,
      "Ġquáº¥y": 9144,
      "ĠMore": 9145,
      "uld": 9146,
      "ĠStudies": 9147,
      "ĠPraha": 9148,
      "Ã¯": 9149,
      "ĠHipp": 9150,
      "iami": 9151,
      "Ã¤r": 9152,
      "ĠManh": 9153,
      "ĠHistor": 9154,
      "ĠKelly": 9155,
      "ĠStew": 9156,
      "iec": 9157,
      "ĠThuyá»ģn": 9158,
      "html": 9159,
      "ĠThuá»Ļc": 9160,
      "ĠJacques": 9161,
      "eok": 9162,
      "ĠFai": 9163,
      "zcz": 9164,
      "evo": 9165,
      "igi": 9166,
      "idia": 9167,
      "Ġhis": 9168,
      "Ð°Ð»": 9169,
      "gov": 9170,
      "Ġngáº¡n": 9171,
      "ĠHur": 9172,
      "tin": 9173,
      "Ġav": 9174,
      "Å©a": 9175,
      "åľĭ": 9176,
      "ĠGP": 9177,
      "ĠEun": 9178,
      "Ġ1844": 9179,
      "Ġpo": 9180,
      "Ġ125": 9181,
      "ĠZimbabwe": 9182,
      "ĠÄĲÃ³n": 9183,
      "ĠJae": 9184,
      "ĠÄĳuá»ĳi": 9185,
      "ĠLÃªn": 9186,
      "orp": 9187,
      "ĠKavkaz": 9188,
      "ĠHeb": 9189,
      "Ġgiáº¿ng": 9190,
      "ards": 9191,
      "Ġna": 9192,
      "ĠLuxembourg": 9193,
      "fort": 9194,
      "ĠCá»ĳng": 9195,
      "etic": 9196,
      "Ġvá»ĩt": 9197,
      "báº±ng": 9198,
      "emi": 9199,
      "1971": 9200,
      "fess": 9201,
      "king": 9202,
      "ĠAra": 9203,
      "iban": 9204,
      "iversity": 9205,
      "Ġmá»ĭn": 9206,
      "ä¸»": 9207,
      "ĠWy": 9208,
      "anny": 9209,
      "ĠBulb": 9210,
      "ĠService": 9211,
      "ĠYoon": 9212,
      "amba": 9213,
      "ead": 9214,
      "ĠRus": 9215,
      "ĠSho": 9216,
      "ĠAthlet": 9217,
      "ĠNaval": 9218,
      "ĠSebast": 9219,
      "ĠPep": 9220,
      "ĠÃĸ": 9221,
      "ĠIndiana": 9222,
      "ĠKras": 9223,
      "ĠBeatles": 9224,
      "Ġcap": 9225,
      "ĠClin": 9226,
      "ĠLevi": 9227,
      "DC": 9228,
      "isha": 9229,
      "Ġcá»Ĺ": 9230,
      "Ġnhá»¥i": 9231,
      "ÐµÐ»": 9232,
      "Quá»ĳc": 9233,
      "ĠSalvador": 9234,
      "Ġpho": 9235,
      "ĠBhutan": 9236,
      "Ġ\".": 9237,
      "ĠPhilippe": 9238,
      "ector": 9239,
      "Ġthá»¥c": 9240,
      "ĠRoos": 9241,
      "Ġsynonym": 9242,
      "agement": 9243,
      "ifera": 9244,
      "ĠBeau": 9245,
      "ĠnÃ´n": 9246,
      "eneg": 9247,
      "Äĩ": 9248,
      "Ġmáº»": 9249,
      "ĠNau": 9250,
      "rogen": 9251,
      "rise": 9252,
      "ËĲ": 9253,
      "Ġá»ĳm": 9254,
      "ĠLenn": 9255,
      "ellus": 9256,
      "ĠBÆ°u": 9257,
      "ĠMagazine": 9258,
      "ihan": 9259,
      "ĠEsc": 9260,
      "house": 9261,
      "ĠOnt": 9262,
      "ĠVincent": 9263,
      "ĠHonduras": 9264,
      "Car": 9265,
      "ĠCour": 9266,
      "edi": 9267,
      "sterdam": 9268,
      "ĠTung": 9269,
      "antha": 9270,
      "ĠOz": 9271,
      "ÄĲND": 9272,
      "ĠthÃª": 9273,
      "ĠHTV": 9274,
      "DD": 9275,
      "lah": 9276,
      "ĠKitt": 9277,
      "anti": 9278,
      "ugawa": 9279,
      "ĠJonathan": 9280,
      "ĠTÃ¬m": 9281,
      "ĠIsa": 9282,
      "Ġ1851": 9283,
      "ĠUTC": 9284,
      "ĠDeutsch": 9285,
      "Ġgay": 9286,
      "ĠReich": 9287,
      "åĲİ": 9288,
      "Is": 9289,
      "ĠTennessee": 9290,
      "ç¦": 9291,
      "Theo": 9292,
      "250": 9293,
      "gun": 9294,
      "arov": 9295,
      "ĠBass": 9296,
      "ĠGM": 9297,
      "ĠCollection": 9298,
      "wara": 9299,
      "phÃ¡t": 9300,
      "chel": 9301,
      "ĠÄĲÃłng": 9302,
      "elypter": 9303,
      "ĠMall": 9304,
      "ĠFK": 9305,
      "thers": 9306,
      "1939": 9307,
      "ĠDirect": 9308,
      "pháº§n": 9309,
      "Ġnhan": 9310,
      "ĠKay": 9311,
      "Ġbáº¿": 9312,
      "ĠNelson": 9313,
      "ĠnÃ³c": 9314,
      "ouvelle": 9315,
      "less": 9316,
      "ĠThá»Ń": 9317,
      "Ġcons": 9318,
      "heim": 9319,
      "ĠsÃª": 9320,
      "ĠiOS": 9321,
      "VÆ°Æ¡ng": 9322,
      "Ġbut": 9323,
      "ĠOrchid": 9324,
      "ĠGener": 9325,
      "Ġenzyme": 9326,
      "Ġcáº©u": 9327,
      "aise": 9328,
      "ĠWalt": 9329,
      "ĠJimmy": 9330,
      "à¸²à¸": 9331,
      "æĻ": 9332,
      "agh": 9333,
      "Ġ900": 9334,
      "900": 9335,
      "ĠCatherine": 9336,
      "ĠnghÃªnh": 9337,
      "oker": 9338,
      "etty": 9339,
      "ĠCrypt": 9340,
      "quest": 9341,
      "ĠPotter": 9342,
      "ĠWho": 9343,
      "ÑĪ": 9344,
      "ĠPhill": 9345,
      "Ġvá»¥n": 9346,
      "ĠParaguay": 9347,
      "Ãī": 9348,
      "ĠBáº¡t": 9349,
      "orpha": 9350,
      "uli": 9351,
      "ĠØ": 9352,
      "enza": 9353,
      "Ġnháº¥m": 9354,
      "Ġgiun": 9355,
      "ĠNavar": 9356,
      "xÃ£": 9357,
      "Ġdá»ĵn": 9358,
      "ĠÄĲá»ĭch": 9359,
      "NS": 9360,
      "ĠnhÆ°á»£c": 9361,
      "ĠThoáº¡i": 9362,
      "ĠLac": 9363,
      "Ġgá»Ļp": 9364,
      "ĠCarr": 9365,
      "iflora": 9366,
      "Ġhá»Ł": 9367,
      "ĠkhÃ´n": 9368,
      "elo": 9369,
      "ophora": 9370,
      "Ġcá»¥t": 9371,
      "eneveld": 9372,
      "ĠGehrels": 9373,
      "ĠMelan": 9374,
      "enes": 9375,
      "ĠByzantine": 9376,
      "raham": 9377,
      "ĠAmph": 9378,
      "Ð¸Ñı": 9379,
      "ĠSiberia": 9380,
      "ĠConservation": 9381,
      "uor": 9382,
      "wall": 9383,
      "----": 9384,
      "ĠTir": 9385,
      "ĠFly": 9386,
      "ocarp": 9387,
      "ĠtÃºng": 9388,
      "Ġnáº¡": 9389,
      "Ġcent": 9390,
      "ĠMelbourne": 9391,
      "ĠBabylon": 9392,
      "ĠArts": 9393,
      "ĠTrai": 9394,
      "ĠChinh": 9395,
      "ĠApp": 9396,
      "PG": 9397,
      "nell": 9398,
      "Î½": 9399,
      "evelt": 9400,
      "Ac": 9401,
      "ĠBlu": 9402,
      "1967": 9403,
      "Groeneveld": 9404,
      "NO": 9405,
      "ylla": 9406,
      "ostr": 9407,
      "ados": 9408,
      "ohama": 9409,
      "ĠLyon": 9410,
      "Ġrem": 9411,
      "ĠPolit": 9412,
      "ysis": 9413,
      "ĠCÃºc": 9414,
      "ĠHamm": 9415,
      "ĠBuch": 9416,
      "ĠMul": 9417,
      "ĠNapoleon": 9418,
      "ockh": 9419,
      "On": 9420,
      "ĠLáº¯k": 9421,
      "ĠIan": 9422,
      "igg": 9423,
      "azi": 9424,
      "150": 9425,
      "ĠMys": 9426,
      "ĠTháº§y": 9427,
      "IDS": 9428,
      "å¤©": 9429,
      "ems": 9430,
      "ulation": 9431,
      "Ġkhiáº¿p": 9432,
      "ĠLatvia": 9433,
      "Ind": 9434,
      "ĠSomalia": 9435,
      "ĠCath": 9436,
      "ĠHá»±u": 9437,
      "ĠValent": 9438,
      "ĠGiovanni": 9439,
      "Ġkhá»ĳc": 9440,
      "ĠAdolf": 9441,
      "ĠOliv": 9442,
      "ouk": 9443,
      "Ne": 9444,
      "ĠASE": 9445,
      "cept": 9446,
      "Ġeng": 9447,
      "mark": 9448,
      "ĠBulbophyllum": 9449,
      "Ġsal": 9450,
      "ĠAI": 9451,
      "PC": 9452,
      "ĠAge": 9453,
      "ĠVatican": 9454,
      "ĠVic": 9455,
      "Ġchuá»ĵn": 9456,
      "pp": 9457,
      "ĠFir": 9458,
      "Ġhuá»³nh": 9459,
      "ĠFrankfurt": 9460,
      "Ġlaser": 9461,
      "Ġdio": 9462,
      "ĠAndy": 9463,
      "Ġhuá»·": 9464,
      "ĠCot": 9465,
      "anz": 9466,
      "ĠSuk": 9467,
      "ĠMitch": 9468,
      "ĠPhys": 9469,
      "å¿": 9470,
      "ĠAcademy": 9471,
      "ovic": 9472,
      "ĠCarter": 9473,
      "obi": 9474,
      "emer": 9475,
      "ede": 9476,
      "ĠIndian": 9477,
      "ĠAthens": 9478,
      "ĠBoys": 9479,
      "ĠÄĲá»ĵn": 9480,
      "oco": 9481,
      "ĠCaesar": 9482,
      "eoph": 9483,
      "dal": 9484,
      "wik": 9485,
      "Ġent": 9486,
      "Ġbiáº¿m": 9487,
      "ning": 9488,
      "Ġlá»ĵi": 9489,
      "ĠVy": 9490,
      "ĠRot": 9491,
      "idion": 9492,
      "eij": 9493,
      "ĠNÃ´m": 9494,
      "ĠÄĲá»ķi": 9495,
      "ĠHolt": 9496,
      "Ġchuá»ĳi": 9497,
      "ĠBoris": 9498,
      "Can": 9499,
      "Saint": 9500,
      "ĠGaga": 9501,
      "æ³": 9502,
      "ĠMyr": 9503,
      "ĠDim": 9504,
      "ĠWrest": 9505,
      "ĠGabriel": 9506,
      "ĠSad": 9507,
      "ĠPul": 9508,
      "ĠMobile": 9509,
      "Ġkali": 9510,
      "ĠMÃ¨o": 9511,
      "alaya": 9512,
      "áº¥ng": 9513,
      "MC": 9514,
      "ĠgáºŃy": 9515,
      "Ð¸Ñĩ": 9516,
      "ĠÃ´m": 9517,
      "ĠHil": 9518,
      "igen": 9519,
      "Ġcamera": 9520,
      "gie": 9521,
      "ĠkhÃ©p": 9522,
      "åŁ": 9523,
      "istol": 9524,
      "ĠMW": 9525,
      "ĠWright": 9526,
      "auss": 9527,
      "ĠImp": 9528,
      "ĠFuk": 9529,
      "ingo": 9530,
      "ĠDeath": 9531,
      "LS": 9532,
      "ĠJosh": 9533,
      "ossa": 9534,
      "Ġ1853": 9535,
      "head": 9536,
      "ĠConnect": 9537,
      "Há»Ļi": 9538,
      "à¥": 9539,
      "ĠElectron": 9540,
      "Ð½Ñĭ": 9541,
      "ĠYokohama": 9542,
      "Ġváº§n": 9543,
      "Ġnhá»¥y": 9544,
      "ĠChiáº¿u": 9545,
      "ĠWak": 9546,
      "Ã¨ne": 9547,
      "ucky": 9548,
      "ĠiPhone": 9549,
      "ĠMog": 9550,
      "etus": 9551,
      "bat": 9552,
      "ĠAires": 9553,
      "ĠTá»įa": 9554,
      "ĠMiami": 9555,
      "phi": 9556,
      "Ġquáº·ng": 9557,
      "ocen": 9558,
      "astr": 9559,
      "rent": 9560,
      "ĠJoy": 9561,
      "artment": 9562,
      "orh": 9563,
      "ĠAustralian": 9564,
      "ĠStewart": 9565,
      "ĠSite": 9566,
      "iper": 9567,
      "ĠGrim": 9568,
      "RE": 9569,
      "hyun": 9570,
      "Ġkhoáº»": 9571,
      "flix": 9572,
      "GB": 9573,
      "aton": 9574,
      "leg": 9575,
      "ĠHoÃ¡": 9576,
      "ĠEngine": 9577,
      "amas": 9578,
      "ĠPtol": 9579,
      "Ġmanh": 9580,
      "ĠmÃµm": 9581,
      "eel": 9582,
      "120": 9583,
      "ĠRáº¡ch": 9584,
      "Ġint": 9585,
      "trÃªn": 9586,
      "1964": 9587,
      "ĠRoosevelt": 9588,
      "die": 9589,
      "ĠRach": 9590,
      "Ġ1856": 9591,
      "FB": 9592,
      "ĠdÃ¡n": 9593,
      "itions": 9594,
      "yna": 9595,
      "à¹Ģ": 9596,
      "ĠOntario": 9597,
      "ĠLip": 9598,
      "Ã´ne": 9599,
      "ĠSÃ¢m": 9600,
      "ĠEk": 9601,
      "ĠEnt": 9602,
      "MI": 9603,
      "æĽ": 9604,
      "ĠNouvelle": 9605,
      "ĠBom": 9606,
      "æķ": 9607,
      "aig": 9608,
      "illes": 9609,
      "iers": 9610,
      "nen": 9611,
      "esis": 9612,
      "ischer": 9613,
      "ĠOliver": 9614,
      "ĠchiÃªm": 9615,
      "ĠAnat": 9616,
      "ĠDas": 9617,
      "ifol": 9618,
      "Ġviá»ĩt": 9619,
      "ioni": 9620,
      "ĠCharlie": 9621,
      "Ġus": 9622,
      "owo": 9623,
      "dale": 9624,
      "Ġ1837": 9625,
      "1966": 9626,
      "Ġvitamin": 9627,
      "mÃ©t": 9628,
[...]
